// Auto-generated TFLite model for ESP32-S3
// Model: 1D CNN Driving Behavior Classifier
// Input:  INT8 tensor of shape (1, 7, 6)
// Output: INT8 tensor of shape (1, 4)
// Classes: Sudden Accel, Sudden Right Turn, Sudden Left Turn, Sudden Brake
// Input normalization (apply BEFORE quantization):
//   AccX: (raw - 0.272871) / 0.175126
//   AccY: (raw - -0.093345) / 0.183105
//   AccZ: (raw - -0.980525) / 0.098316
//   GyroX: (raw - -0.916773) / 3.493536
//   GyroY: (raw - 4.120061) / 3.233063
//   GyroZ: (raw - 1.809188) / 10.819375
// Input quantization: scale=0.039763, zero_point=-7
//
// Size: 30656 bytes

#ifndef DRIVING_CNN_MODEL_H
#define DRIVING_CNN_MODEL_H

#include <stdint.h>

const unsigned int driving_cnn_model_len = 30656;
alignas(8) const uint8_t driving_cnn_model[] = {
  0x20, 0x00, 0x00, 0x00, 0x54, 0x46, 0x4c, 0x33, 0x00, 0x00, 0x00, 0x00, 
  0x14, 0x00, 0x20, 0x00, 0x1c, 0x00, 0x18, 0x00, 0x14, 0x00, 0x10, 0x00, 
  0x0c, 0x00, 0x00, 0x00, 0x08, 0x00, 0x04, 0x00, 0x14, 0x00, 0x00, 0x00, 
  0x1c, 0x00, 0x00, 0x00, 0x8c, 0x00, 0x00, 0x00, 0xe4, 0x00, 0x00, 0x00, 
  0x00, 0x51, 0x00, 0x00, 0x10, 0x51, 0x00, 0x00, 0xcc, 0x76, 0x00, 0x00, 
  0x03, 0x00, 0x00, 0x00, 0x01, 0x00, 0x00, 0x00, 0x04, 0x00, 0x00, 0x00, 
  0xc2, 0xab, 0xff, 0xff, 0x0c, 0x00, 0x00, 0x00, 0x1c, 0x00, 0x00, 0x00, 
  0x3c, 0x00, 0x00, 0x00, 0x0f, 0x00, 0x00, 0x00, 0x73, 0x65, 0x72, 0x76, 
  0x69, 0x6e, 0x67, 0x5f, 0x64, 0x65, 0x66, 0x61, 0x75, 0x6c, 0x74, 0x00, 
  0x01, 0x00, 0x00, 0x00, 0x04, 0x00, 0x00, 0x00, 0x90, 0xff, 0xff, 0xff, 
  0x20, 0x00, 0x00, 0x00, 0x04, 0x00, 0x00, 0x00, 0x08, 0x00, 0x00, 0x00, 
  0x6f, 0x75, 0x74, 0x70, 0x75, 0x74, 0x5f, 0x30, 0x00, 0x00, 0x00, 0x00, 
  0x01, 0x00, 0x00, 0x00, 0x04, 0x00, 0x00, 0x00, 0xfa, 0xad, 0xff, 0xff, 
  0x04, 0x00, 0x00, 0x00, 0x0c, 0x00, 0x00, 0x00, 0x73, 0x65, 0x6e, 0x73, 
  0x6f, 0x72, 0x5f, 0x69, 0x6e, 0x70, 0x75, 0x74, 0x00, 0x00, 0x00, 0x00, 
  0x02, 0x00, 0x00, 0x00, 0x34, 0x00, 0x00, 0x00, 0x04, 0x00, 0x00, 0x00, 
  0xdc, 0xff, 0xff, 0xff, 0x23, 0x00, 0x00, 0x00, 0x04, 0x00, 0x00, 0x00, 
  0x13, 0x00, 0x00, 0x00, 0x43, 0x4f, 0x4e, 0x56, 0x45, 0x52, 0x53, 0x49, 
  0x4f, 0x4e, 0x5f, 0x4d, 0x45, 0x54, 0x41, 0x44, 0x41, 0x54, 0x41, 0x00, 
  0x08, 0x00, 0x0c, 0x00, 0x08, 0x00, 0x04, 0x00, 0x08, 0x00, 0x00, 0x00, 
  0x22, 0x00, 0x00, 0x00, 0x04, 0x00, 0x00, 0x00, 0x13, 0x00, 0x00, 0x00, 
  0x6d, 0x69, 0x6e, 0x5f, 0x72, 0x75, 0x6e, 0x74, 0x69, 0x6d, 0x65, 0x5f, 
  0x76, 0x65, 0x72, 0x73, 0x69, 0x6f, 0x6e, 0x00, 0x24, 0x00, 0x00, 0x00, 
  0x18, 0x50, 0x00, 0x00, 0x10, 0x50, 0x00, 0x00, 0xfc, 0x4f, 0x00, 0x00, 
  0xe0, 0x4f, 0x00, 0x00, 0xc4, 0x4f, 0x00, 0x00, 0xb0, 0x4f, 0x00, 0x00, 
  0x94, 0x4f, 0x00, 0x00, 0x80, 0x4f, 0x00, 0x00, 0x78, 0x4f, 0x00, 0x00, 
  0x64, 0x4f, 0x00, 0x00, 0x44, 0x4f, 0x00, 0x00, 0x34, 0x4e, 0x00, 0x00, 
  0x24, 0x4d, 0x00, 0x00, 0x14, 0x1d, 0x00, 0x00, 0x04, 0x1c, 0x00, 0x00, 
  0xf4, 0x03, 0x00, 0x00, 0x64, 0x03, 0x00, 0x00, 0x14, 0x01, 0x00, 0x00, 
  0x0c, 0x01, 0x00, 0x00, 0x04, 0x01, 0x00, 0x00, 0xfc, 0x00, 0x00, 0x00, 
  0xf4, 0x00, 0x00, 0x00, 0xec, 0x00, 0x00, 0x00, 0xe4, 0x00, 0x00, 0x00, 
  0xdc, 0x00, 0x00, 0x00, 0xd4, 0x00, 0x00, 0x00, 0xcc, 0x00, 0x00, 0x00, 
  0xc4, 0x00, 0x00, 0x00, 0xbc, 0x00, 0x00, 0x00, 0xb4, 0x00, 0x00, 0x00, 
  0xac, 0x00, 0x00, 0x00, 0xa4, 0x00, 0x00, 0x00, 0x9c, 0x00, 0x00, 0x00, 
  0x94, 0x00, 0x00, 0x00, 0x74, 0x00, 0x00, 0x00, 0x04, 0x00, 0x00, 0x00, 
  0x06, 0xaf, 0xff, 0xff, 0x04, 0x00, 0x00, 0x00, 0x60, 0x00, 0x00, 0x00, 
  0x0c, 0x00, 0x00, 0x00, 0x08, 0x00, 0x0e, 0x00, 0x08, 0x00, 0x04, 0x00, 
  0x08, 0x00, 0x00, 0x00, 0x10, 0x00, 0x00, 0x00, 0x28, 0x00, 0x00, 0x00, 
  0x00, 0x00, 0x06, 0x00, 0x08, 0x00, 0x04, 0x00, 0x06, 0x00, 0x00, 0x00, 
  0x04, 0x00, 0x00, 0x00, 0x01, 0x00, 0x00, 0x00, 0xeb, 0x03, 0x00, 0x00, 
  0x0c, 0x00, 0x18, 0x00, 0x14, 0x00, 0x10, 0x00, 0x0c, 0x00, 0x04, 0x00, 
  0x0c, 0x00, 0x00, 0x00, 0x7b, 0xe0, 0xe0, 0x61, 0xa6, 0x8d, 0xc2, 0x2d, 
  0x02, 0x00, 0x00, 0x00, 0x02, 0x00, 0x00, 0x00, 0x04, 0x00, 0x00, 0x00, 
  0x06, 0x00, 0x00, 0x00, 0x32, 0x2e, 0x32, 0x31, 0x2e, 0x30, 0x00, 0x00, 
  0x72, 0xaf, 0xff, 0xff, 0x04, 0x00, 0x00, 0x00, 0x10, 0x00, 0x00, 0x00, 
  0x31, 0x2e, 0x31, 0x34, 0x2e, 0x30, 0x00, 0x00, 0x00, 0x00, 0x00, 0x00, 
  0x00, 0x00, 0x00, 0x00, 0xf0, 0x8b, 0xff, 0xff, 0xf4, 0x8b, 0xff, 0xff, 
  0xf8, 0x8b, 0xff, 0xff, 0xfc, 0x8b, 0xff, 0xff, 0x00, 0x8c, 0xff, 0xff, 
  0x04, 0x8c, 0xff, 0xff, 0x08, 0x8c, 0xff, 0xff, 0x0c, 0x8c, 0xff, 0xff, 
  0x10, 0x8c, 0xff, 0xff, 0x14, 0x8c, 0xff, 0xff, 0x18, 0x8c, 0xff, 0xff, 
  0x1c, 0x8c, 0xff, 0xff, 0x20, 0x8c, 0xff, 0xff, 0x24, 0x8c, 0xff, 0xff, 
  0x28, 0x8c, 0xff, 0xff, 0x2c, 0x8c, 0xff, 0xff, 0xce, 0xaf, 0xff, 0xff, 
  0x04, 0x00, 0x00, 0x00, 0x40, 0x02, 0x00, 0x00, 0xba, 0x4c, 0x42, 0xc1, 
  0xcc, 0x0f, 0xd7, 0x3c, 0xac, 0x94, 0xd9, 0xde, 0x19, 0x81, 0x02, 0xb1, 
  0xda, 0x1f, 0x2a, 0x63, 0x5a, 0x70, 0x8d, 0xa8, 0x93, 0xbd, 0xb6, 0xb4, 
  0xe7, 0x81, 0xe5, 0x26, 0x53, 0x02, 0x17, 0xe2, 0x87, 0xd0, 0xa2, 0xda, 
  0x0f, 0xbc, 0xf1, 0xb2, 0x49, 0x81, 0x74, 0xe9, 0x27, 0xd7, 0xf5, 0x29, 
  0xde, 0x18, 0x63, 0x97, 0x18, 0xf5, 0xdb, 0xa0, 0x78, 0xad, 0x81, 0xdd, 
  0x75, 0x4b, 0xbb, 0xf8, 0x22, 0xa2, 0x41, 0xaf, 0x90, 0x38, 0x97, 0xb8, 
  0xcc, 0x3e, 0xba, 0x7f, 0x1c, 0x1a, 0x1e, 0xb2, 0x31, 0x3c, 0xf9, 0x1d, 
  0x4a, 0xfd, 0x2d, 0x4f, 0x9b, 0x92, 0x6a, 0xd4, 0xb3, 0x18, 0xbc, 0xf6, 
  0xe8, 0x0c, 0x81, 0x79, 0x74, 0x25, 0x0c, 0x45, 0xe0, 0x6f, 0x55, 0x95, 
  0x4d, 0x81, 0x1f, 0x31, 0x84, 0x40, 0xa7, 0xa4, 0x46, 0xb5, 0xe9, 0x98, 
  0x5d, 0x85, 0x11, 0x3e, 0x63, 0x32, 0x00, 0xb0, 0xad, 0x22, 0xd3, 0xcd, 
  0x3f, 0x1d, 0x0b, 0x7f, 0x26, 0x98, 0x14, 0x0b, 0xef, 0x34, 0xc3, 0xc3, 
  0x16, 0x34, 0x26, 0x06, 0xda, 0xec, 0xfc, 0xfe, 0x2c, 0x5a, 0x01, 0xcb, 
  0x30, 0x7f, 0xdf, 0x44, 0xa5, 0x61, 0x2f, 0x99, 0xa6, 0x90, 0x9e, 0x4a, 
  0xeb, 0xea, 0xce, 0x81, 0xc8, 0x2a, 0x03, 0xde, 0x22, 0xef, 0x35, 0x30, 
  0x14, 0x03, 0x41, 0x4d, 0x4e, 0xef, 0x9f, 0x64, 0xb8, 0xea, 0xe8, 0x1a, 
  0x32, 0x7f, 0xe8, 0xd4, 0xd5, 0xcb, 0x0c, 0x01, 0x7f, 0x0a, 0x09, 0x11, 
  0x3a, 0x56, 0xf5, 0x57, 0xda, 0x6b, 0xd1, 0xc4, 0xdc, 0xd3, 0x30, 0xaf, 
  0x24, 0x8e, 0x96, 0x55, 0x7f, 0x6f, 0x49, 0x86, 0x51, 0x02, 0x1d, 0x2c, 
  0x89, 0x29, 0x52, 0x30, 0x2c, 0xe7, 0x23, 0xd3, 0x7f, 0x46, 0x4b, 0x54, 
  0xdf, 0xec, 0x59, 0xb0, 0x9f, 0x0c, 0xbc, 0x90, 0x45, 0x7f, 0x77, 0xac, 
  0x5d, 0xd7, 0xd3, 0x69, 0x2b, 0x20, 0xad, 0xd8, 0x27, 0x82, 0x34, 0x7e, 
  0xac, 0x44, 0x1d, 0x18, 0x56, 0xaf, 0xb2, 0x81, 0x11, 0x2c, 0x6d, 0x2f, 
  0xc2, 0xa3, 0x42, 0x47, 0x9e, 0x9a, 0xe2, 0xbc, 0x64, 0xff, 0x67, 0xbf, 
  0x08, 0xc7, 0xc5, 0x1a, 0x81, 0xcf, 0xbe, 0x6f, 0x1c, 0x5b, 0xed, 0x3b, 
  0xca, 0x3b, 0x08, 0x90, 0x0e, 0x0c, 0xe1, 0xeb, 0xe9, 0x2c, 0x81, 0xd7, 
  0x6b, 0x24, 0xd6, 0xba, 0xee, 0x1b, 0x31, 0x8e, 0x3f, 0x12, 0x03, 0xb7, 
  0x1b, 0xb8, 0x3c, 0x33, 0x49, 0x03, 0xf6, 0x7f, 0x94, 0x30, 0xb2, 0x95, 
  0xce, 0x9e, 0x0b, 0xbe, 0x7f, 0x79, 0x0a, 0x38, 0xa9, 0x5b, 0xcd, 0x90, 
  0x3e, 0xc2, 0x5e, 0xab, 0x99, 0xe3, 0x2e, 0x7b, 0x89, 0x86, 0xfc, 0x0e, 
  0x88, 0xc4, 0xcb, 0xa9, 0xcc, 0x63, 0x2e, 0xec, 0xab, 0xce, 0x5e, 0x9c, 
  0x7f, 0xd3, 0x72, 0x52, 0x30, 0xc5, 0x56, 0x76, 0xb8, 0xd5, 0x81, 0x5e, 
  0xfe, 0xf2, 0x16, 0xcf, 0xcb, 0xc3, 0xb5, 0x79, 0xf3, 0xe9, 0xc2, 0x0d, 
  0x6c, 0x45, 0xe9, 0x67, 0xb1, 0x03, 0x68, 0x09, 0xea, 0x08, 0x42, 0x7f, 
  0x3a, 0x0e, 0x14, 0xae, 0x2b, 0xf0, 0x31, 0x2a, 0x19, 0x48, 0xab, 0x98, 
  0xcc, 0x9f, 0x39, 0x59, 0x7f, 0x9c, 0xcc, 0xe8, 0xe1, 0xa9, 0x0b, 0x45, 
  0x90, 0x96, 0xea, 0xf1, 0x31, 0x12, 0x10, 0x5e, 0xf7, 0xed, 0xf3, 0x52, 
  0xd4, 0x81, 0xa1, 0x81, 0xd6, 0x43, 0xed, 0xfc, 0xdb, 0x18, 0x5d, 0x61, 
  0xdd, 0xaa, 0x9b, 0x2d, 0x73, 0xf5, 0x9b, 0x54, 0x4f, 0x1d, 0xf5, 0xaf, 
  0x55, 0x23, 0x11, 0x7f, 0x23, 0x3d, 0x0c, 0xfd, 0xd8, 0x71, 0x1a, 0xad, 
  0x3d, 0x38, 0x89, 0xda, 0xb3, 0x51, 0x6e, 0x2a, 0xb5, 0x1a, 0xb5, 0x82, 
  0x18, 0x0c, 0xe6, 0x61, 0x07, 0x5e, 0x26, 0x81, 0x7f, 0xc5, 0xca, 0x2b, 
  0xf8, 0x5d, 0x03, 0x09, 0x09, 0xf7, 0x48, 0xdc, 0xe7, 0x36, 0x08, 0x0d, 
  0x38, 0x18, 0x01, 0x06, 0x52, 0x1f, 0x02, 0xbf, 0x81, 0x5a, 0xea, 0xd3, 
  0xec, 0x17, 0x4c, 0x14, 0x22, 0xdb, 0x3e, 0x3b, 0x14, 0x6c, 0xce, 0xff, 
  0xe4, 0x7f, 0xe8, 0x65, 0xba, 0x02, 0x9d, 0x1a, 0x05, 0x71, 0x26, 0x56, 
  0x76, 0x34, 0x09, 0xd9, 0x48, 0x52, 0xf3, 0xf1, 0x7f, 0x3d, 0xf8, 0x16, 
  0x07, 0x22, 0x58, 0xbc, 0x2e, 0xec, 0x04, 0xb2, 0x1a, 0xb2, 0xff, 0xff, 
  0x04, 0x00, 0x00, 0x00, 0x80, 0x00, 0x00, 0x00, 0xe6, 0xfe, 0xff, 0xff, 
  0x6c, 0x00, 0x00, 0x00, 0x78, 0x02, 0x00, 0x00, 0xdb, 0xff, 0xff, 0xff, 
  0x12, 0xfe, 0xff, 0xff, 0xb7, 0x01, 0x00, 0x00, 0x30, 0x00, 0x00, 0x00, 
  0x61, 0x00, 0x00, 0x00, 0xe0, 0x00, 0x00, 0x00, 0x98, 0x01, 0x00, 0x00, 
  0xd7, 0x02, 0x00, 0x00, 0xf0, 0x02, 0x00, 0x00, 0x03, 0x03, 0x00, 0x00, 
  0x77, 0xff, 0xff, 0xff, 0x78, 0x01, 0x00, 0x00, 0xec, 0xff, 0xff, 0xff, 
  0x51, 0x04, 0x00, 0x00, 0x7f, 0x02, 0x00, 0x00, 0x7d, 0x01, 0x00, 0x00, 
  0x1a, 0x00, 0x00, 0x00, 0xc1, 0x02, 0x00, 0x00, 0x6b, 0xff, 0xff, 0xff, 
  0xa0, 0x00, 0x00, 0x00, 0x81, 0x00, 0x00, 0x00, 0xb1, 0x00, 0x00, 0x00, 
  0xc6, 0x01, 0x00, 0x00, 0x94, 0xff, 0xff, 0xff, 0x22, 0xfd, 0xff, 0xff, 
  0x7f, 0x00, 0x00, 0x00, 0x2b, 0xff, 0xff, 0xff, 0x34, 0x00, 0x00, 0x00, 
  0xe4, 0xff, 0xff, 0xff, 0xa6, 0xb2, 0xff, 0xff, 0x04, 0x00, 0x00, 0x00, 
  0x00, 0x18, 0x00, 0x00, 0xdd, 0xac, 0xaf, 0x96, 0xf9, 0xe2, 0x40, 0xff, 
  0xca, 0x91, 0xa8, 0x57, 0xbc, 0xdd, 0xef, 0xf4, 0xe9, 0x3b, 0xf0, 0xd5, 
  0x0c, 0x0f, 0x32, 0xc3, 0x48, 0x3d, 0xd0, 0x2f, 0xfa, 0x33, 0x87, 0x64, 
  0xc3, 0xe2, 0x3b, 0x3a, 0x49, 0x0d, 0xfe, 0x74, 0x09, 0xf2, 0x58, 0x4d, 
  0xf1, 0x1a, 0x07, 0xad, 0x06, 0xec, 0x49, 0xe0, 0x96, 0x56, 0x25, 0x5c, 
  0x45, 0x53, 0x68, 0x48, 0x02, 0x64, 0x38, 0x38, 0x32, 0xa2, 0xca, 0x42, 
  0x76, 0x5e, 0x4c, 0x43, 0x27, 0xf0, 0x5e, 0x04, 0x35, 0xde, 0xed, 0x96, 
  0x5c, 0x81, 0xbb, 0xc1, 0xd8, 0x11, 0xed, 0xe5, 0x36, 0x3e, 0xee, 0x5f, 
  0x30, 0x00, 0x41, 0x17, 0xee, 0xe0, 0xc3, 0x27, 0xe3, 0x0d, 0x0e, 0xc7, 
  0x02, 0x4b, 0xb2, 0xda, 0x0c, 0x2f, 0xe7, 0x33, 0x97, 0xb9, 0x14, 0x81, 
  0xf9, 0xa0, 0x39, 0x46, 0x92, 0x3d, 0xc3, 0xa9, 0xef, 0x1f, 0x10, 0xdd, 
  0x3b, 0x03, 0xc5, 0x29, 0x52, 0xda, 0xca, 0xb5, 0xb1, 0xe1, 0x15, 0x05, 
  0xd7, 0xef, 0x29, 0xe3, 0xe9, 0x26, 0x55, 0x2d, 0xc3, 0x18, 0x2b, 0xe8, 
  0x2b, 0x15, 0xad, 0x68, 0xf9, 0xd2, 0x2b, 0x3b, 0x71, 0xd6, 0xea, 0x20, 
  0xcf, 0xb1, 0x2d, 0x45, 0x31, 0xc5, 0xeb, 0xb7, 0x4c, 0xed, 0x06, 0xe0, 
  0x4d, 0xfb, 0x49, 0x41, 0xad, 0x67, 0xc9, 0x0d, 0xf3, 0xf9, 0x13, 0x13, 
  0x01, 0xcf, 0xa2, 0x56, 0xd5, 0x4d, 0x36, 0xc7, 0x7f, 0x57, 0x20, 0x56, 
  0xdf, 0x49, 0xbe, 0xa7, 0xdc, 0x44, 0xfc, 0xd8, 0x53, 0xe0, 0x15, 0xca, 
  0x51, 0x49, 0xed, 0x09, 0xdb, 0xb4, 0x55, 0xff, 0x58, 0x1b, 0x4a, 0x39, 
  0xda, 0x3f, 0xcf, 0x00, 0x3e, 0x59, 0xb6, 0x07, 0xca, 0x4b, 0x9e, 0xda, 
  0x12, 0x14, 0x5b, 0x99, 0x2b, 0xcf, 0x3f, 0x53, 0x4d, 0xaa, 0xb9, 0x5c, 
  0x4d, 0x65, 0xe5, 0xd4, 0x4e, 0x04, 0x75, 0xf4, 0x10, 0xfc, 0xdb, 0x6a, 
  0xfc, 0x3f, 0xec, 0x1c, 0xb9, 0x1a, 0xad, 0xea, 0x00, 0xcb, 0xe9, 0xa0, 
  0x46, 0xc8, 0xe4, 0xbc, 0xa9, 0xdd, 0xc5, 0xf0, 0xef, 0xaa, 0xcb, 0x5f, 
  0x38, 0x54, 0x5f, 0x30, 0x0c, 0x73, 0xfb, 0xbe, 0x2f, 0x71, 0x38, 0x3d, 
  0xc0, 0xe7, 0x18, 0xc1, 0xe1, 0xb5, 0xe5, 0xa2, 0xbe, 0xef, 0xb8, 0x5c, 
  0x1b, 0x48, 0x21, 0x15, 0xcd, 0xea, 0x38, 0x2c, 0x3a, 0x6b, 0x2f, 0x07, 
  0x12, 0xbc, 0xd8, 0x0c, 0x49, 0xa4, 0x56, 0xea, 0xe7, 0xf9, 0x2f, 0xb5, 
  0xe0, 0x2f, 0x5c, 0x81, 0x2a, 0x3a, 0xa6, 0xf4, 0xf5, 0xf5, 0x64, 0x2c, 
  0x5d, 0xa9, 0x20, 0x49, 0xb4, 0x4d, 0xe8, 0x4c, 0xcd, 0xf8, 0x30, 0x42, 
  0x5e, 0xe2, 0x58, 0xf9, 0xba, 0x4c, 0xc4, 0x23, 0xfc, 0xf6, 0xfb, 0x02, 
  0xfa, 0xfb, 0x1d, 0x54, 0xc3, 0x4d, 0xc8, 0x3b, 0x13, 0x10, 0x31, 0xaf, 
  0x63, 0xf3, 0x2b, 0x27, 0xbd, 0x34, 0xf3, 0xcd, 0x60, 0xf3, 0x3e, 0x09, 
  0x5e, 0x48, 0x71, 0x34, 0xb6, 0x9c, 0x62, 0x65, 0x4b, 0x52, 0xf9, 0x46, 
  0x4c, 0xf0, 0xfd, 0xaa, 0x2b, 0xb8, 0x33, 0xd8, 0x47, 0x1f, 0x2b, 0x0d, 
  0x44, 0x6a, 0x64, 0x04, 0x3a, 0x99, 0x1a, 0x3c, 0xbf, 0xb0, 0xf3, 0x05, 
  0xfa, 0xca, 0x08, 0x30, 0x26, 0x0a, 0xc3, 0xf3, 0xbb, 0xff, 0xce, 0xc8, 
  0x12, 0x14, 0xc8, 0xff, 0xd4, 0x55, 0x18, 0xf7, 0x09, 0xfe, 0x4f, 0x8a, 
  0xe4, 0x7f, 0x1f, 0x73, 0x58, 0x18, 0xef, 0x43, 0x4e, 0x1d, 0x12, 0xbe, 
  0x31, 0xaf, 0x1e, 0x17, 0x67, 0x39, 0xdf, 0xde, 0x4a, 0xc7, 0x23, 0xfc, 
  0x95, 0xea, 0x06, 0x3c, 0xfd, 0xe5, 0x22, 0x5b, 0x82, 0xa1, 0x52, 0x09, 
  0x2a, 0xb0, 0x4b, 0xd0, 0x41, 0x00, 0x4f, 0x38, 0xff, 0xc8, 0x18, 0x76, 
  0xb1, 0xa4, 0xee, 0x40, 0x5d, 0x42, 0x91, 0xb0, 0xc8, 0x53, 0xea, 0xef, 
  0x97, 0xec, 0xd8, 0x94, 0x4b, 0xf4, 0x65, 0xe0, 0x0a, 0xe6, 0x4b, 0x39, 
  0xc9, 0x03, 0xea, 0x7f, 0xe8, 0x3e, 0x52, 0xdb, 0x24, 0x76, 0xb5, 0xf7, 
  0xf7, 0x20, 0xa2, 0x97, 0x2d, 0x4f, 0x83, 0xdf, 0x56, 0xba, 0x26, 0x58, 
  0x2f, 0xee, 0xe0, 0x0b, 0xe2, 0x40, 0x6b, 0x28, 0xa5, 0x4c, 0x06, 0xb4, 
  0x0e, 0xf7, 0xc3, 0x04, 0xc3, 0x68, 0xf7, 0x5e, 0x2a, 0x38, 0x19, 0x38, 
  0x42, 0x05, 0xff, 0x4b, 0x51, 0xf6, 0x3e, 0xe6, 0x29, 0xc7, 0x5b, 0xcd, 
  0xb3, 0x3f, 0x12, 0xf6, 0xd0, 0x29, 0xe2, 0x03, 0x11, 0x07, 0x2b, 0x29, 
  0xc0, 0x19, 0xd4, 0x3a, 0x3a, 0xb3, 0xce, 0xf6, 0x25, 0xe8, 0xd0, 0xed, 
  0x18, 0xdf, 0x3c, 0x3e, 0x11, 0x39, 0x29, 0xed, 0xde, 0x4d, 0xad, 0x2b, 
  0xc8, 0x3d, 0xde, 0xd3, 0x30, 0x12, 0x55, 0x01, 0x0d, 0x1b, 0x39, 0x05, 
  0xc1, 0x0e, 0x1e, 0xc7, 0xd3, 0x46, 0xfa, 0xc1, 0xc6, 0x3a, 0x53, 0x28, 
  0x07, 0x28, 0xf0, 0x47, 0x23, 0x04, 0xa3, 0x0b, 0xc4, 0xd0, 0x2e, 0xea, 
  0xeb, 0xd3, 0xa3, 0x07, 0x3d, 0x12, 0x1e, 0x4e, 0x4b, 0x4f, 0xbf, 0x7f, 
  0x05, 0xdb, 0x08, 0xb4, 0x1e, 0xf1, 0xf1, 0x52, 0x59, 0x20, 0xab, 0x16, 
  0xa9, 0xe2, 0x0a, 0xa5, 0x68, 0xb8, 0x17, 0x3c, 0x6b, 0xbb, 0xfa, 0xcd, 
  0x7b, 0x07, 0x1d, 0xfc, 0x6d, 0x36, 0xcf, 0xad, 0xa7, 0xbd, 0x03, 0xbe, 
  0xa4, 0xb8, 0xbb, 0x3c, 0xe9, 0x05, 0xb7, 0x44, 0xfa, 0xe6, 0x35, 0xef, 
  0x33, 0x0a, 0xf7, 0x1d, 0xdd, 0x2b, 0x88, 0x58, 0x57, 0xde, 0x6d, 0x3a, 
  0xb9, 0x48, 0xb4, 0xd1, 0xa0, 0xff, 0x6b, 0xdd, 0xd2, 0x4e, 0xc0, 0xe0, 
  0x19, 0x42, 0xca, 0x16, 0x6e, 0xa2, 0x05, 0x6c, 0x5e, 0x6b, 0x36, 0x3a, 
  0xb7, 0x43, 0x3c, 0x07, 0xeb, 0x2f, 0xd1, 0x23, 0xdd, 0x7f, 0x6e, 0xfd, 
  0x4c, 0xac, 0xff, 0xff, 0x0f, 0xdd, 0xfa, 0xc0, 0x74, 0x09, 0xa6, 0xcf, 
  0x4e, 0x21, 0xd7, 0xdf, 0x0c, 0xfb, 0xfc, 0xf9, 0xf4, 0xf1, 0xcc, 0xcf, 
  0xdc, 0x41, 0xe3, 0x3a, 0x64, 0x7f, 0x33, 0xda, 0xf3, 0x43, 0xea, 0x1b, 
  0x18, 0x19, 0x18, 0x49, 0x06, 0x3d, 0xfa, 0xf1, 0x51, 0x2b, 0x2c, 0xd2, 
  0x01, 0x40, 0x1d, 0xe6, 0x1d, 0x3a, 0xee, 0x3e, 0xa4, 0xdc, 0x4a, 0xfe, 
  0x2f, 0x22, 0x02, 0xd4, 0x0c, 0x1b, 0x34, 0xdd, 0x1a, 0xc8, 0xc0, 0xdf, 
  0xe7, 0x37, 0xa0, 0x4e, 0x0b, 0xbe, 0x4a, 0x4e, 0xcb, 0x07, 0xae, 0xb6, 
  0x09, 0xf3, 0x1c, 0x31, 0xe6, 0x4d, 0xf2, 0x15, 0x34, 0xb8, 0x32, 0x1d, 
  0x0c, 0x54, 0xc5, 0xf8, 0x06, 0x23, 0xd0, 0x97, 0x97, 0x64, 0xcb, 0x38, 
  0x2b, 0xb4, 0xce, 0xf4, 0x21, 0xda, 0x01, 0x64, 0x16, 0x00, 0x30, 0xf7, 
  0xb4, 0x46, 0xcc, 0x02, 0xb7, 0xd6, 0x06, 0xcf, 0xc3, 0x50, 0x39, 0x43, 
  0xce, 0x51, 0x14, 0x13, 0x54, 0xbf, 0x5c, 0xcf, 0x02, 0xe1, 0x9d, 0xe2, 
  0x41, 0x4a, 0x5a, 0x64, 0x13, 0x17, 0x29, 0xdc, 0x3d, 0x06, 0xfe, 0x0a, 
  0x00, 0xf1, 0xed, 0x06, 0x9d, 0x98, 0xc5, 0xaf, 0x9a, 0xed, 0xef, 0x50, 
  0xb9, 0x5c, 0x24, 0xe8, 0xb7, 0x18, 0x0d, 0x3a, 0x7f, 0x9d, 0xb0, 0x72, 
  0x17, 0x74, 0xac, 0x18, 0x2c, 0xec, 0xfb, 0x9d, 0x12, 0x04, 0x44, 0x40, 
  0xbe, 0x15, 0xec, 0x22, 0x19, 0x3a, 0x25, 0xd7, 0x03, 0x65, 0xd9, 0x18, 
  0x39, 0xf3, 0x4b, 0x5d, 0xaf, 0x11, 0xdf, 0xea, 0x5e, 0x9d, 0xa3, 0x3c, 
  0x05, 0xf7, 0x35, 0x06, 0xf5, 0xde, 0xdd, 0x05, 0xd0, 0xd3, 0x11, 0x40, 
  0x11, 0x4e, 0x28, 0xa0, 0xbd, 0xa3, 0xca, 0x48, 0x57, 0xd7, 0x7f, 0xd6, 
  0x04, 0xbc, 0x17, 0xcf, 0x30, 0xe2, 0x17, 0x22, 0xe8, 0xfb, 0x29, 0xc8, 
  0xca, 0xf7, 0x4f, 0x4c, 0x38, 0xc8, 0x34, 0x04, 0xb8, 0xfc, 0x1e, 0xf0, 
  0xa8, 0x3c, 0xc3, 0xa4, 0xc7, 0xf9, 0x27, 0x18, 0x38, 0x32, 0xa2, 0x1c, 
  0xce, 0x19, 0x3e, 0xed, 0x38, 0x42, 0x50, 0x15, 0x6e, 0x22, 0x1a, 0x47, 
  0xa9, 0x25, 0x17, 0xf8, 0xaa, 0xeb, 0x18, 0xff, 0xbd, 0xf6, 0x12, 0x1e, 
  0xca, 0xc0, 0x41, 0x35, 0xd1, 0x4b, 0xc4, 0xb3, 0x2e, 0x43, 0x30, 0x21, 
  0x9d, 0x5a, 0x04, 0xdc, 0xbc, 0x61, 0x92, 0xd1, 0x7f, 0xbf, 0xc9, 0x63, 
  0x5c, 0x17, 0xac, 0x5f, 0xbd, 0xb8, 0x1a, 0x19, 0x26, 0x62, 0xb9, 0x0f, 
  0x35, 0x35, 0xc2, 0xfc, 0x01, 0x53, 0x5e, 0xb2, 0xf1, 0xd5, 0x16, 0x26, 
  0x36, 0x37, 0xbf, 0xb5, 0x16, 0xe2, 0xf7, 0xcd, 0xc4, 0x2a, 0xac, 0x45, 
  0x1c, 0x07, 0xea, 0xbd, 0xa7, 0xea, 0xf5, 0xf7, 0x28, 0xe9, 0x1b, 0xd0, 
  0x4a, 0xc2, 0xbd, 0x96, 0x1b, 0x40, 0xed, 0xe6, 0xfd, 0xf0, 0x5e, 0x29, 
  0x13, 0x34, 0xd2, 0x17, 0xf2, 0x4b, 0x63, 0xf7, 0xe7, 0xeb, 0x07, 0x60, 
  0xca, 0xfa, 0x0b, 0x1d, 0xe0, 0xd8, 0x4b, 0xb7, 0x9d, 0x14, 0x41, 0x29, 
  0xe4, 0xb6, 0x39, 0x5a, 0xe6, 0x44, 0x57, 0x06, 0x10, 0x18, 0x1c, 0xcc, 
  0xe1, 0xed, 0xa0, 0x01, 0xc9, 0xae, 0x2c, 0xb1, 0x25, 0xcd, 0x12, 0xbd, 
  0x09, 0xc2, 0x47, 0x46, 0xf5, 0x2b, 0xc5, 0xca, 0x57, 0x4d, 0x2a, 0x70, 
  0x06, 0xa2, 0xc7, 0x74, 0xcc, 0x29, 0xc9, 0x39, 0xfa, 0x98, 0xaf, 0xe0, 
  0x40, 0x4d, 0x50, 0x0b, 0xb4, 0xb5, 0x39, 0x3b, 0xdb, 0x7f, 0x9c, 0x18, 
  0xf8, 0xfc, 0xdf, 0x1b, 0xec, 0xbd, 0xfc, 0xdd, 0x2b, 0x2c, 0xe8, 0x0b, 
  0x48, 0x16, 0x1e, 0x1f, 0x03, 0xef, 0xe0, 0x1d, 0x26, 0xf3, 0xd0, 0x50, 
  0x32, 0x16, 0xe1, 0x9e, 0xcf, 0xd2, 0x2f, 0x0c, 0xdb, 0xb4, 0xe8, 0x4e, 
  0xd2, 0xe4, 0x33, 0x4d, 0xb1, 0xa4, 0xa1, 0xcb, 0x11, 0xd4, 0xe9, 0xe6, 
  0x14, 0x38, 0x62, 0xdb, 0xb5, 0xcb, 0xbe, 0x1d, 0xea, 0x46, 0x83, 0xc1, 
  0x65, 0x8d, 0x31, 0x0f, 0x4d, 0x13, 0x49, 0x56, 0xed, 0xb8, 0xbd, 0x28, 
  0xe9, 0x2f, 0xee, 0xb4, 0x2b, 0x34, 0x21, 0xc9, 0xea, 0x9b, 0xd1, 0x53, 
  0xe0, 0x39, 0xb2, 0x12, 0xe0, 0xff, 0x6b, 0x2f, 0xa1, 0xea, 0x57, 0x36, 
  0xed, 0xec, 0x0d, 0x1c, 0x07, 0xf1, 0x81, 0x12, 0xf6, 0x09, 0xe2, 0xde, 
  0xbd, 0x32, 0x69, 0xb5, 0xc5, 0x29, 0xeb, 0x1a, 0xcb, 0x63, 0xb5, 0x12, 
  0xc6, 0xbd, 0x21, 0x07, 0x7c, 0x59, 0x11, 0xe0, 0xab, 0x25, 0x11, 0x0e, 
  0xfe, 0x12, 0x3b, 0x00, 0x3c, 0xec, 0x59, 0x56, 0xe1, 0xb1, 0xfd, 0x1f, 
  0xdf, 0xfa, 0xcf, 0x30, 0xc9, 0x28, 0x0c, 0x19, 0x58, 0xc8, 0x2d, 0x27, 
  0x0d, 0x1d, 0xe4, 0x66, 0xe7, 0x86, 0xfd, 0xdb, 0x18, 0x20, 0x08, 0x57, 
  0x20, 0xbf, 0xd6, 0xc3, 0x39, 0x43, 0xd4, 0x19, 0x45, 0xff, 0xb2, 0x01, 
  0x94, 0xda, 0xb1, 0xd6, 0x71, 0xd9, 0x7f, 0x57, 0x45, 0xe3, 0x06, 0xe1, 
  0x4e, 0x5c, 0x19, 0x06, 0x00, 0xdd, 0x28, 0x01, 0xb7, 0xb9, 0x08, 0xdc, 
  0x00, 0x1f, 0x31, 0xee, 0xa4, 0xf5, 0xba, 0x2e, 0x72, 0x4e, 0xde, 0x4a, 
  0xd2, 0xb4, 0x1b, 0xbb, 0x58, 0xa2, 0x0f, 0x13, 0x4d, 0x4b, 0x53, 0x23, 
  0xeb, 0x0f, 0x44, 0xfb, 0x50, 0x6f, 0x29, 0xf0, 0x00, 0xf6, 0x7f, 0xf0, 
  0xd7, 0x54, 0x4c, 0xb0, 0x48, 0x3d, 0xd7, 0x57, 0xf7, 0xc3, 0x9e, 0x2c, 
  0x34, 0xbf, 0x4a, 0xcf, 0xa5, 0x07, 0x06, 0x43, 0xce, 0x13, 0x20, 0xd0, 
  0x29, 0x32, 0x4e, 0xfb, 0x23, 0xfd, 0x33, 0x26, 0x17, 0x2d, 0x31, 0x1f, 
  0xef, 0xdc, 0x1f, 0x07, 0x3b, 0x5e, 0xd0, 0x34, 0x47, 0xda, 0xc0, 0x3e, 
  0x0a, 0xdc, 0x13, 0x29, 0x2f, 0x3c, 0xfe, 0x98, 0x04, 0x45, 0xd2, 0x12, 
  0xe7, 0xf9, 0xbf, 0x21, 0xd6, 0xb6, 0x4f, 0x64, 0x18, 0x42, 0xde, 0x4d, 
  0x0f, 0x66, 0x22, 0x1a, 0xcd, 0x1d, 0xbb, 0x9c, 0x4d, 0x02, 0xdf, 0xba, 
  0x2b, 0xc2, 0x33, 0x41, 0xea, 0xc8, 0xeb, 0xf5, 0x3c, 0x48, 0x4b, 0x10, 
  0x2f, 0xed, 0xa1, 0x60, 0x99, 0x97, 0xd5, 0xb4, 0xc5, 0xba, 0xe8, 0xc7, 
  0x73, 0x23, 0xae, 0x41, 0xa1, 0x94, 0x4a, 0xcc, 0x51, 0xcb, 0x11, 0xba, 
  0xc4, 0xbc, 0x7f, 0xc5, 0xbf, 0xcf, 0x2c, 0x69, 0x98, 0xe1, 0xf6, 0x49, 
  0x0a, 0xca, 0xbd, 0x12, 0x27, 0xd4, 0xdf, 0x00, 0xa2, 0x3b, 0xc8, 0xa9, 
  0x04, 0xce, 0xa1, 0x47, 0x2a, 0xff, 0xb4, 0xe1, 0x57, 0xda, 0xdb, 0xb2, 
  0x3b, 0xf8, 0xad, 0xa4, 0xed, 0xf3, 0xdf, 0xda, 0xa3, 0x3d, 0xd7, 0xa7, 
  0x05, 0xd8, 0x4a, 0x43, 0x25, 0x40, 0xf7, 0x07, 0x3d, 0x2b, 0xc5, 0x2f, 
  0x18, 0xf9, 0x14, 0x14, 0xc7, 0x16, 0x22, 0xb8, 0x33, 0x31, 0x1f, 0xe1, 
  0x3d, 0x2c, 0x48, 0x39, 0x2d, 0x07, 0x01, 0xd6, 0xd8, 0x15, 0xc1, 0x02, 
  0xf0, 0xb4, 0xca, 0x0c, 0x18, 0xfc, 0xa9, 0xf0, 0xf6, 0xfd, 0x4e, 0x49, 
  0x57, 0x32, 0x10, 0xc9, 0xc8, 0xf6, 0xd0, 0x46, 0xda, 0xcb, 0x0e, 0x26, 
  0xb3, 0x5e, 0x26, 0xf3, 0xf0, 0xc4, 0xf7, 0x3e, 0x7f, 0x05, 0x06, 0x5f, 
  0xba, 0xd6, 0xc9, 0xc1, 0x4c, 0xf6, 0x5a, 0x1a, 0x77, 0x09, 0xca, 0x33, 
  0xa7, 0xe9, 0xf5, 0x2d, 0x87, 0x26, 0x17, 0x6b, 0xbd, 0x0f, 0x57, 0x48, 
  0xa0, 0x7c, 0x5d, 0x14, 0xc5, 0x65, 0x0b, 0xf3, 0x06, 0x20, 0xf1, 0xc3, 
  0x37, 0x24, 0x61, 0xf0, 0xc1, 0xe1, 0xd1, 0xf7, 0x2a, 0xc5, 0x4f, 0x31, 
  0x9c, 0xdf, 0xef, 0x3b, 0x88, 0x0c, 0x1c, 0xf8, 0x1d, 0x3b, 0x9f, 0x64, 
  0xb7, 0xdd, 0xd1, 0x81, 0x0d, 0x42, 0x36, 0x06, 0x0f, 0xfc, 0x28, 0xc2, 
  0xfa, 0xfa, 0xde, 0x4d, 0x17, 0xe6, 0x0d, 0x49, 0xa3, 0xed, 0xbc, 0xbe, 
  0x02, 0x2c, 0x75, 0x4a, 0x1e, 0x19, 0x0e, 0xeb, 0xbc, 0xe7, 0x3f, 0x01, 
  0xed, 0xda, 0xc6, 0xc9, 0x72, 0x37, 0x26, 0x34, 0xa2, 0xf9, 0x19, 0xdd, 
  0x95, 0xe1, 0x39, 0x40, 0xf5, 0xd4, 0xc5, 0x35, 0x43, 0xcf, 0x36, 0x5a, 
  0xdf, 0xb4, 0x23, 0x38, 0xb2, 0x39, 0xf9, 0x30, 0xfc, 0x53, 0x5b, 0xbb, 
  0x13, 0x25, 0xd8, 0xdf, 0xe1, 0x1b, 0xd9, 0xe8, 0xe9, 0x52, 0x57, 0xe3, 
  0x7f, 0xe8, 0xd1, 0xe0, 0x49, 0xdc, 0x59, 0xdc, 0xfd, 0x10, 0xa6, 0xff, 
  0x5b, 0xd3, 0x21, 0xf1, 0x1a, 0x21, 0xf4, 0x70, 0xf5, 0x02, 0xe4, 0xcc, 
  0xe8, 0x41, 0xa0, 0x75, 0x11, 0x02, 0x19, 0xaf, 0x0d, 0x37, 0x52, 0xfa, 
  0x4b, 0xe3, 0xf8, 0xe2, 0x45, 0x52, 0x37, 0xf2, 0xe2, 0xdc, 0x20, 0xb4, 
  0xbe, 0xbc, 0x44, 0x37, 0xc5, 0x45, 0x37, 0xac, 0x21, 0xf0, 0xfc, 0xaf, 
  0xc2, 0xc1, 0xbe, 0x28, 0x3e, 0x50, 0x4b, 0x1f, 0x72, 0x5d, 0x17, 0x51, 
  0xc2, 0x31, 0x40, 0xd1, 0x35, 0x3e, 0x61, 0xe5, 0xa4, 0xfb, 0xf3, 0xb4, 
  0xc7, 0xed, 0xe7, 0xf4, 0xdf, 0xd0, 0x4f, 0xd2, 0x48, 0x19, 0x05, 0xc2, 
  0xf5, 0x17, 0x50, 0xe5, 0x20, 0x0b, 0x42, 0x37, 0xd3, 0x5c, 0xf6, 0x33, 
  0x12, 0x42, 0x1c, 0x19, 0xbf, 0xef, 0x2b, 0xb3, 0xd5, 0x3d, 0x50, 0xcf, 
  0xee, 0x9e, 0x15, 0x3a, 0x5b, 0x68, 0x53, 0x4c, 0xbd, 0x51, 0x7f, 0x00, 
  0xe5, 0xb9, 0x2a, 0xf6, 0xac, 0x28, 0x97, 0x01, 0x35, 0xe2, 0xbf, 0x60, 
  0x8f, 0xed, 0x2d, 0xd0, 0x39, 0xae, 0xa8, 0xd6, 0xcf, 0xff, 0xce, 0xe9, 
  0x6c, 0xdd, 0xad, 0xc7, 0x9e, 0x05, 0xb1, 0x65, 0xb0, 0x56, 0x9c, 0x35, 
  0xcc, 0x3d, 0x26, 0xd0, 0x43, 0x03, 0x04, 0xc8, 0x0d, 0x95, 0x1a, 0x9c, 
  0xe4, 0x9a, 0x05, 0x81, 0x3a, 0x63, 0x23, 0x25, 0x13, 0xb4, 0x02, 0x0c, 
  0xf8, 0x46, 0xe5, 0xde, 0xed, 0xc4, 0xd4, 0xb1, 0x23, 0x45, 0x5e, 0xbe, 
  0x19, 0xf3, 0x1d, 0xe5, 0xe8, 0x2a, 0xc8, 0x17, 0xbc, 0x2a, 0xcf, 0x5d, 
  0xba, 0x12, 0x48, 0xa4, 0x5e, 0xfa, 0x57, 0xbe, 0xe3, 0x01, 0xf7, 0xd6, 
  0xc5, 0x67, 0x33, 0x29, 0x44, 0xf6, 0xf2, 0x00, 0xc1, 0xa3, 0x17, 0x1d, 
  0x24, 0x2c, 0x15, 0xff, 0x14, 0x21, 0xd9, 0x40, 0x69, 0xd4, 0xaa, 0xca, 
  0x5c, 0x51, 0x31, 0x2d, 0x6d, 0x32, 0xcc, 0xda, 0x76, 0x3a, 0x9f, 0x72, 
  0xdc, 0xa7, 0xbd, 0xa4, 0xfd, 0xf1, 0x55, 0xdf, 0x05, 0x68, 0x40, 0x39, 
  0x2c, 0x63, 0xf6, 0xba, 0x18, 0x03, 0xd2, 0x7f, 0xab, 0x07, 0x10, 0x4c, 
  0x77, 0xc2, 0xbc, 0xed, 0xe1, 0x2b, 0x73, 0xae, 0x3e, 0xd3, 0xd7, 0xc3, 
  0x2f, 0x17, 0x74, 0xba, 0xd5, 0xd1, 0xdd, 0xbb, 0xa7, 0xab, 0x74, 0x18, 
  0xc1, 0x9b, 0xc7, 0x62, 0x25, 0x25, 0x20, 0x79, 0x06, 0xf3, 0xed, 0x75, 
  0x45, 0x29, 0x7d, 0x0b, 0xb3, 0x4a, 0x38, 0x47, 0x25, 0xc7, 0x94, 0x92, 
  0x9a, 0xa5, 0xb2, 0xf7, 0xa1, 0xc5, 0x0e, 0xd9, 0xcc, 0x2e, 0x40, 0x2e, 
  0xe6, 0xe0, 0xee, 0x19, 0xe4, 0x90, 0xff, 0x4c, 0x47, 0xc4, 0xcf, 0x2e, 
  0x10, 0x08, 0x28, 0xef, 0x48, 0xaa, 0xb7, 0x2f, 0x52, 0xa2, 0x68, 0xef, 
  0x7f, 0xf5, 0xb2, 0xdf, 0x68, 0x6b, 0xe0, 0x31, 0x37, 0x25, 0xd1, 0xe4, 
  0xab, 0x6d, 0x2a, 0x28, 0xa8, 0x96, 0xc3, 0x6a, 0x4b, 0x38, 0x44, 0xab, 
  0x38, 0xdd, 0x6a, 0x20, 0x42, 0x58, 0x54, 0xeb, 0x3f, 0xdc, 0xb0, 0xda, 
  0x44, 0x66, 0xa4, 0x46, 0xa2, 0x49, 0x19, 0x36, 0xf3, 0x39, 0x2e, 0x13, 
  0xb6, 0x54, 0xaa, 0xf8, 0xee, 0x01, 0xe4, 0xab, 0x1e, 0xb0, 0xc7, 0xe8, 
  0xdf, 0x11, 0x30, 0x07, 0x5a, 0xd1, 0x71, 0x56, 0x2c, 0x2c, 0x3f, 0xbd, 
  0xf5, 0xc8, 0x2f, 0xc2, 0xca, 0xe1, 0x74, 0xae, 0xfa, 0xbe, 0xaf, 0x9d, 
  0x4b, 0xdd, 0x2e, 0xa4, 0xa2, 0x6b, 0x36, 0xe1, 0xe8, 0x5d, 0x20, 0x22, 
  0x97, 0x91, 0x7d, 0xff, 0x8d, 0x0b, 0x1e, 0xfc, 0x65, 0x90, 0xfe, 0x52, 
  0xe1, 0xaa, 0x00, 0xa6, 0x3a, 0xd7, 0x71, 0x0c, 0x68, 0x42, 0xb6, 0x10, 
  0xfb, 0xcf, 0x05, 0x2b, 0xbc, 0x2c, 0x0d, 0xb8, 0x70, 0x9e, 0xbd, 0x64, 
  0xa0, 0x20, 0x35, 0xc7, 0xab, 0x07, 0x4e, 0xb4, 0xfd, 0x1b, 0x00, 0x61, 
  0x20, 0xe8, 0x4b, 0x0d, 0xdc, 0x94, 0x2c, 0x53, 0xa7, 0x0e, 0x6d, 0x2d, 
  0x17, 0x09, 0x4a, 0x3f, 0x0a, 0xcc, 0x49, 0xa9, 0xa9, 0x00, 0x81, 0x0d, 
  0xe7, 0x06, 0xf4, 0xf1, 0xd1, 0xde, 0x3c, 0x3b, 0x0d, 0xe5, 0x35, 0x27, 
  0x5c, 0x02, 0x2a, 0xaf, 0xef, 0x94, 0xac, 0xe2, 0xd5, 0xbd, 0x1e, 0x2e, 
  0x53, 0xe7, 0x20, 0xd9, 0x2a, 0xf0, 0x0c, 0xc4, 0xe8, 0xcd, 0x47, 0x40, 
  0x53, 0xe3, 0x11, 0xe4, 0xcd, 0x37, 0xaf, 0x17, 0xff, 0x4f, 0x0e, 0xe8, 
  0xce, 0x98, 0xec, 0x08, 0x15, 0xd2, 0x34, 0x31, 0x2e, 0x33, 0x68, 0x1b, 
  0x4d, 0xe9, 0x1d, 0xed, 0xc4, 0xf5, 0xb6, 0xd5, 0x62, 0xb8, 0x3a, 0x37, 
  0xc0, 0xe6, 0x13, 0x4b, 0xe9, 0x0e, 0xa3, 0x57, 0xba, 0x15, 0xe0, 0xf9, 
  0x20, 0x7a, 0x42, 0xe0, 0xf8, 0x31, 0xe8, 0xc7, 0x7f, 0xaf, 0xa6, 0x27, 
  0xa7, 0xaa, 0x4c, 0x8a, 0x37, 0xcd, 0x20, 0xa5, 0x24, 0x14, 0x5f, 0x4b, 
  0x7b, 0xcb, 0xcf, 0xd7, 0x09, 0x51, 0x01, 0x51, 0xc5, 0x12, 0xc6, 0xf4, 
  0xa3, 0x57, 0x1e, 0xa5, 0x61, 0x7b, 0xe1, 0x3b, 0xf9, 0xdf, 0x38, 0x25, 
  0x5c, 0xdb, 0xa3, 0xa2, 0x2f, 0x66, 0xca, 0x1d, 0x0f, 0x9c, 0x17, 0x17, 
  0x59, 0xbe, 0xe4, 0xac, 0x35, 0xa9, 0x63, 0xb2, 0x1c, 0xd4, 0x1c, 0x38, 
  0x63, 0xf3, 0xe8, 0x9a, 0x2d, 0xc8, 0x3a, 0x42, 0xf4, 0xf8, 0x81, 0x28, 
  0x1d, 0x1b, 0xf0, 0x22, 0xcb, 0x3c, 0xfa, 0x42, 0xe4, 0x06, 0x53, 0xcd, 
  0xe5, 0x43, 0xf7, 0x4f, 0x48, 0xb4, 0x03, 0x45, 0xeb, 0x60, 0xf8, 0x4a, 
  0x53, 0x05, 0x70, 0x1c, 0xd0, 0xf9, 0xba, 0x6a, 0x01, 0x4f, 0x0b, 0xc7, 
  0x4c, 0xd4, 0xdd, 0x1e, 0xf1, 0x4e, 0x2a, 0x09, 0xc3, 0x5f, 0x43, 0xd8, 
  0x06, 0x36, 0x4d, 0xd6, 0xa6, 0x8f, 0x0c, 0x2f, 0xad, 0xbb, 0x09, 0x62, 
  0xb0, 0xf2, 0x22, 0x07, 0xb4, 0x3c, 0xa7, 0xd7, 0xd2, 0x37, 0xcd, 0x40, 
  0x24, 0xbd, 0x0e, 0xf4, 0xb6, 0xd8, 0xf3, 0x1a, 0xfe, 0x37, 0xf0, 0x34, 
  0xe5, 0x4d, 0x26, 0x16, 0x1c, 0x05, 0xf9, 0xf0, 0x81, 0x19, 0xaf, 0xb8, 
  0xc0, 0xe3, 0x69, 0xcd, 0x4e, 0x4f, 0xb6, 0x12, 0x5d, 0x32, 0x11, 0xc2, 
  0x08, 0xd6, 0xa1, 0x3c, 0x18, 0xee, 0xb3, 0x02, 0xbf, 0xe2, 0x4c, 0xaa, 
  0xc8, 0xcb, 0x0a, 0xee, 0x34, 0xed, 0xc0, 0xce, 0x8f, 0xad, 0x3e, 0x39, 
  0xd9, 0x25, 0xf4, 0x44, 0xea, 0x28, 0xfb, 0x27, 0xde, 0xa5, 0xc1, 0x64, 
  0xfd, 0xd0, 0x1c, 0x2e, 0x5f, 0xd6, 0xc5, 0x51, 0xc7, 0x3b, 0x94, 0xfa, 
  0x74, 0xe9, 0x1e, 0x48, 0x57, 0x67, 0x6b, 0x12, 0x04, 0x32, 0x54, 0x87, 
  0xff, 0xd5, 0x0e, 0xf2, 0x3f, 0x01, 0x91, 0x05, 0x4b, 0x12, 0xf4, 0xeb, 
  0x3e, 0xf8, 0x24, 0x04, 0x01, 0x52, 0x7f, 0x57, 0x43, 0xc3, 0xe3, 0xc1, 
  0xec, 0x3a, 0x1b, 0xfe, 0x0c, 0x5a, 0xe2, 0x36, 0x47, 0x30, 0x32, 0x17, 
  0x26, 0xda, 0xfc, 0xa4, 0x26, 0xf7, 0x75, 0x04, 0x16, 0x67, 0x9a, 0xd5, 
  0x44, 0x3b, 0x59, 0xd2, 0x34, 0x27, 0x23, 0xb5, 0x8c, 0xcc, 0x32, 0x8d, 
  0x0c, 0xfd, 0x42, 0xc1, 0x59, 0xdb, 0xf0, 0xfb, 0xec, 0x42, 0x0a, 0x2c, 
  0xcc, 0x1b, 0xc9, 0xae, 0x53, 0x96, 0xcf, 0x41, 0xf2, 0xe5, 0x81, 0x07, 
  0xf2, 0x49, 0xc4, 0xe7, 0x65, 0xe3, 0x72, 0x0b, 0xd1, 0xc6, 0x40, 0x45, 
  0xf9, 0x30, 0x34, 0x49, 0x0a, 0xc5, 0x6d, 0x3c, 0x31, 0xef, 0xd3, 0xbd, 
  0xb0, 0x00, 0x31, 0x09, 0x12, 0x53, 0xe8, 0xad, 0x3d, 0xe2, 0x15, 0xc9, 
  0x72, 0x3a, 0x48, 0x1f, 0xc9, 0x3b, 0xf0, 0x10, 0x1d, 0xa3, 0xf7, 0x41, 
  0x35, 0xf0, 0x38, 0xd8, 0xba, 0xcd, 0x41, 0xb5, 0x0c, 0xe7, 0xec, 0x61, 
  0x47, 0xba, 0xae, 0x06, 0xd5, 0x56, 0x10, 0x1c, 0x42, 0x4a, 0x45, 0xde, 
  0xd9, 0xc9, 0xfa, 0x15, 0x3d, 0x3c, 0x52, 0x23, 0x2f, 0x15, 0xdc, 0xa3, 
  0x0e, 0x11, 0xb5, 0x43, 0x40, 0xfa, 0x2b, 0xc8, 0xa4, 0x29, 0x81, 0x27, 
  0xd6, 0xf7, 0xef, 0xa2, 0x37, 0x2e, 0xc3, 0xe0, 0x62, 0xcd, 0xf9, 0x4a, 
  0x30, 0x0e, 0x25, 0x50, 0x4b, 0x9b, 0x01, 0xeb, 0xbf, 0xe8, 0x34, 0xf4, 
  0x3f, 0x55, 0xc0, 0xde, 0x19, 0x1c, 0xcd, 0xba, 0x18, 0xe6, 0xa9, 0x23, 
  0x52, 0x31, 0x4c, 0xe5, 0xdf, 0xd6, 0x62, 0x92, 0xd1, 0xd6, 0x08, 0xe8, 
  0x2e, 0xf1, 0x18, 0x36, 0xf8, 0xcb, 0x22, 0xce, 0xfe, 0xac, 0x3a, 0x36, 
  0xaf, 0xd8, 0x26, 0x36, 0x5f, 0xf4, 0xfb, 0x42, 0xf0, 0x3d, 0xfa, 0x2d, 
  0x15, 0x1b, 0xf6, 0x3e, 0xe2, 0xe6, 0xec, 0xeb, 0xbc, 0xea, 0xcd, 0xbb, 
  0x02, 0xf1, 0xdd, 0xcd, 0x28, 0x13, 0x08, 0x59, 0x15, 0xfa, 0x43, 0xbf, 
  0x53, 0x1f, 0x06, 0xde, 0x3c, 0x01, 0xe4, 0x81, 0x18, 0x45, 0xc7, 0x1a, 
  0x6c, 0x48, 0xdb, 0x41, 0x1d, 0x43, 0x4d, 0x40, 0x20, 0xea, 0x2c, 0xdf, 
  0x12, 0x16, 0xc1, 0x6a, 0xd3, 0x2b, 0xa7, 0xe0, 0xd6, 0x0d, 0x1e, 0x15, 
  0xbc, 0x31, 0xfd, 0x1a, 0xa8, 0x6b, 0xd3, 0x84, 0xf2, 0xcf, 0x0f, 0x61, 
  0xe5, 0x0b, 0x3e, 0xbd, 0x7d, 0xdd, 0xc0, 0x09, 0xf7, 0x45, 0x3d, 0xab, 
  0x29, 0x49, 0xc5, 0xc3, 0x60, 0x16, 0xa5, 0x28, 0xa1, 0x2a, 0x0b, 0x10, 
  0x04, 0x84, 0x4d, 0xdc, 0xc4, 0x53, 0x07, 0x19, 0x11, 0xe5, 0xdc, 0xb9, 
  0x10, 0xdd, 0x36, 0xad, 0x19, 0xcd, 0xf3, 0x33, 0x5b, 0xe3, 0x0f, 0x1a, 
  0xed, 0xc3, 0xca, 0xbe, 0x44, 0x54, 0x0f, 0x2b, 0xbd, 0xdc, 0x3d, 0xc8, 
  0xad, 0x59, 0x37, 0xd3, 0x13, 0xc5, 0x17, 0x5a, 0x9f, 0x20, 0xbe, 0x01, 
  0xe7, 0x05, 0xc3, 0x3c, 0x5a, 0x0a, 0xe0, 0xf7, 0x03, 0x31, 0x81, 0x29, 
  0xe1, 0x17, 0x8b, 0x2c, 0x69, 0x37, 0x39, 0x0c, 0xe4, 0xc1, 0x05, 0xac, 
  0xdb, 0xfe, 0x54, 0x56, 0x8e, 0x72, 0x54, 0x3a, 0x31, 0x65, 0x44, 0xd6, 
  0x25, 0x31, 0x64, 0x44, 0x6f, 0xf0, 0x7d, 0x36, 0xe9, 0x25, 0x68, 0x1b, 
  0xb0, 0x63, 0x32, 0xaf, 0xea, 0x1d, 0xd2, 0xc9, 0xfc, 0x2c, 0xc9, 0xdf, 
  0xef, 0x99, 0xf2, 0x3c, 0x15, 0xeb, 0xf2, 0xf9, 0xae, 0xe6, 0x30, 0x26, 
  0x16, 0xb1, 0xca, 0x6a, 0xf2, 0xc5, 0x45, 0xa1, 0x43, 0x0f, 0xb1, 0x68, 
  0xe0, 0x2f, 0xbb, 0x1d, 0xf6, 0xf2, 0x15, 0xac, 0xb7, 0xaf, 0x81, 0x25, 
  0xe6, 0x52, 0xcc, 0x17, 0x6b, 0x1b, 0xb6, 0xe4, 0xcc, 0xdd, 0xf7, 0xcb, 
  0xe5, 0xd5, 0x0f, 0xc3, 0x87, 0xad, 0x66, 0x20, 0x96, 0xd6, 0xee, 0xcf, 
  0x26, 0x46, 0x75, 0x5e, 0xbf, 0x45, 0x93, 0xce, 0xed, 0xb6, 0xfe, 0x48, 
  0x30, 0x31, 0xf8, 0x46, 0x5c, 0x1a, 0x48, 0xc2, 0xf5, 0xe8, 0x55, 0xd6, 
  0xd3, 0xfe, 0xa9, 0x6c, 0xf9, 0x16, 0xd5, 0x0f, 0x4d, 0x63, 0xd9, 0xfe, 
  0xf2, 0xe2, 0x9c, 0x5f, 0x04, 0x1c, 0xdb, 0x3c, 0x8b, 0x1f, 0x2e, 0x98, 
  0x3d, 0x64, 0x2e, 0x24, 0x07, 0xe0, 0xf4, 0xf4, 0xfc, 0x4e, 0xf7, 0x3c, 
  0xf1, 0x52, 0xcc, 0x44, 0xa6, 0xe5, 0x6c, 0x1d, 0x50, 0x10, 0x09, 0xb1, 
  0x6d, 0x13, 0xae, 0xe8, 0xe5, 0xec, 0xc8, 0x45, 0x12, 0x7c, 0x00, 0x0d, 
  0x47, 0xea, 0xe5, 0xa2, 0x27, 0xda, 0x2b, 0x39, 0x2d, 0xda, 0xbd, 0x36, 
  0x57, 0xd9, 0xd6, 0xfc, 0x7f, 0xf8, 0x46, 0xf6, 0xba, 0x50, 0xb1, 0x9c, 
  0xd9, 0x33, 0xcb, 0xac, 0x00, 0x19, 0xaf, 0xf7, 0x78, 0x7f, 0xd6, 0x69, 
  0xd4, 0x03, 0xac, 0x1b, 0x5a, 0x07, 0x22, 0xfb, 0xf7, 0xc9, 0xca, 0x46, 
  0x1d, 0xed, 0x41, 0xbb, 0xdf, 0xd8, 0x38, 0x25, 0x43, 0x72, 0xef, 0xf3, 
  0x6a, 0x07, 0x1e, 0x03, 0x76, 0x65, 0xf8, 0x3a, 0xa3, 0x0c, 0x37, 0xe8, 
  0x07, 0x2d, 0x33, 0xb7, 0xb0, 0xec, 0xd9, 0x4f, 0x29, 0x19, 0x43, 0xd2, 
  0xb6, 0x32, 0x4f, 0x18, 0x11, 0xed, 0xcf, 0x3f, 0xd2, 0x12, 0xfb, 0x3c, 
  0x06, 0x3a, 0xc3, 0x0b, 0xe0, 0x10, 0xec, 0x41, 0x1f, 0xd6, 0x21, 0x3f, 
  0x0b, 0xe1, 0xcf, 0xd7, 0xdf, 0xf6, 0x20, 0xbd, 0xdb, 0xba, 0xba, 0x46, 
  0xca, 0xf9, 0xc6, 0x0d, 0xbb, 0x9a, 0x5c, 0xb2, 0xba, 0x02, 0xf5, 0x50, 
  0xb6, 0x81, 0x43, 0x55, 0x13, 0xc3, 0x53, 0xd7, 0x46, 0xdd, 0x0c, 0x2c, 
  0xeb, 0xf7, 0xcb, 0x31, 0xfe, 0xb7, 0x9a, 0xdd, 0xe7, 0x46, 0x2f, 0xd3, 
  0x9b, 0x0f, 0xd2, 0x19, 0x49, 0x81, 0x6b, 0xe1, 0x60, 0xce, 0xf8, 0xcb, 
  0xfa, 0x54, 0xee, 0x77, 0x6a, 0x0f, 0x47, 0xf6, 0x01, 0x73, 0x8f, 0xb2, 
  0x09, 0x3c, 0x95, 0xaa, 0xda, 0x47, 0x42, 0x09, 0x4f, 0x03, 0xf6, 0x50, 
  0xe7, 0x50, 0x88, 0xfb, 0x11, 0x2b, 0xcc, 0x11, 0x25, 0xa6, 0x82, 0xdd, 
  0xd6, 0x20, 0xa4, 0x1f, 0x07, 0x12, 0x46, 0xec, 0xf8, 0x39, 0x1c, 0x47, 
  0x14, 0x91, 0x8e, 0x3a, 0xd4, 0xf0, 0x3c, 0x03, 0x8f, 0x38, 0x05, 0x2e, 
  0x58, 0xb9, 0xe7, 0xea, 0xfb, 0x3e, 0x37, 0x15, 0xf5, 0xc7, 0x02, 0x81, 
  0x37, 0xef, 0x4e, 0x25, 0x27, 0x3f, 0x28, 0x48, 0xc8, 0x49, 0x25, 0x9d, 
  0xf0, 0xb4, 0xf3, 0x17, 0xe0, 0x06, 0xbc, 0x3d, 0xe6, 0x29, 0xb9, 0x12, 
  0x4d, 0x06, 0x4b, 0xc3, 0x00, 0xcd, 0x21, 0x20, 0xf0, 0xa9, 0x1c, 0xb7, 
  0x19, 0xe8, 0x4b, 0x35, 0xd2, 0x4c, 0x47, 0x33, 0x02, 0x4d, 0x30, 0x44, 
  0xce, 0x1c, 0xae, 0x64, 0xc6, 0x4b, 0x2c, 0x20, 0x3f, 0xec, 0xd3, 0xfd, 
  0x2d, 0x10, 0x3d, 0x03, 0xdd, 0x47, 0xd4, 0xaa, 0xca, 0xbe, 0x5a, 0xb9, 
  0x46, 0x40, 0x37, 0x33, 0x16, 0x70, 0x37, 0xab, 0x39, 0x53, 0xce, 0xe6, 
  0x39, 0x5a, 0xe6, 0xd5, 0x39, 0xa9, 0xeb, 0x58, 0xd7, 0xa1, 0x2d, 0xba, 
  0x29, 0xbc, 0x0e, 0x85, 0x59, 0x33, 0x40, 0x61, 0x0c, 0x3f, 0xc4, 0xea, 
  0x52, 0x28, 0x2d, 0xf7, 0x41, 0xf9, 0xf7, 0xce, 0x41, 0x03, 0xf2, 0xaf, 
  0x2a, 0x13, 0x50, 0xde, 0x16, 0x31, 0x13, 0xe5, 0x4d, 0x17, 0x4a, 0xa6, 
  0xb1, 0x52, 0x96, 0xed, 0x02, 0xeb, 0x71, 0xcb, 0xde, 0xb6, 0xfa, 0xda, 
  0x33, 0x2a, 0xf6, 0x0d, 0xf0, 0xdf, 0x56, 0xde, 0xf7, 0xfd, 0x81, 0xd5, 
  0xdd, 0xeb, 0x9c, 0xe7, 0xdc, 0xd9, 0xf4, 0xef, 0xf9, 0x1e, 0x30, 0x4f, 
  0xc6, 0xd4, 0x5b, 0x28, 0xcb, 0xf0, 0xd0, 0x1b, 0x09, 0x31, 0xba, 0x69, 
  0x53, 0x34, 0x23, 0x4b, 0xf7, 0x43, 0xc7, 0xc2, 0xb1, 0x61, 0x3b, 0x8f, 
  0xd2, 0xf5, 0xab, 0x54, 0x52, 0xdb, 0x86, 0x2f, 0xd9, 0xba, 0x58, 0x44, 
  0xc9, 0xcb, 0x35, 0xef, 0xb0, 0xff, 0x7f, 0x02, 0xf8, 0x71, 0xf4, 0x2d, 
  0xaf, 0xf9, 0xbf, 0xfb, 0xb8, 0x3b, 0x18, 0xc2, 0x7b, 0x36, 0x24, 0xdb, 
  0x06, 0x70, 0xd9, 0xc3, 0x26, 0xdd, 0x1e, 0x04, 0xc3, 0xc1, 0x43, 0x15, 
  0x27, 0xb6, 0xe5, 0x3d, 0xc7, 0x19, 0x52, 0x46, 0xee, 0x60, 0x09, 0xdb, 
  0xa1, 0x69, 0x24, 0x3d, 0xdb, 0x89, 0x9f, 0x33, 0x34, 0x2c, 0xd0, 0x0c, 
  0x9e, 0x4b, 0xff, 0x66, 0xcb, 0xc5, 0x2e, 0x0b, 0x30, 0xaa, 0x4a, 0xae, 
  0xb2, 0x56, 0xc9, 0x3d, 0x1a, 0x11, 0x37, 0xb1, 0xf3, 0x68, 0xfa, 0x43, 
  0xad, 0xd8, 0xc6, 0xf5, 0x36, 0xbd, 0xc4, 0xfa, 0x0d, 0xa9, 0xe8, 0x3e, 
  0xbf, 0x7f, 0xaf, 0xf0, 0xfc, 0x1e, 0xee, 0x3d, 0x62, 0xed, 0xe7, 0x11, 
  0xb5, 0x41, 0x4e, 0xd7, 0x08, 0x03, 0xea, 0xed, 0x06, 0x62, 0x7d, 0x0f, 
  0xb2, 0x05, 0x10, 0xdd, 0x93, 0xe9, 0xee, 0xc2, 0xa5, 0xc2, 0x65, 0xe8, 
  0xdf, 0xbf, 0xba, 0x68, 0x5d, 0x50, 0x0c, 0xe0, 0xee, 0x00, 0xa6, 0x31, 
  0xb8, 0x98, 0xc1, 0x48, 0xc3, 0xc6, 0x2b, 0x32, 0x47, 0x41, 0x0b, 0x49, 
  0x22, 0x51, 0xce, 0xb3, 0x5c, 0xef, 0x45, 0x2e, 0xa8, 0xc5, 0xa6, 0x75, 
  0x08, 0x04, 0xad, 0x2d, 0x4d, 0x9d, 0x88, 0xf4, 0xf9, 0x94, 0x0e, 0xe9, 
  0x0e, 0xc5, 0x87, 0x04, 0xbe, 0xf0, 0xe7, 0xc4, 0x8b, 0x4c, 0xc6, 0xcb, 
  0x79, 0x4a, 0xd7, 0xb0, 0xcf, 0x45, 0x69, 0x40, 0xd8, 0x99, 0xcc, 0xfe, 
  0x40, 0x4e, 0xe3, 0xb9, 0x1e, 0xfb, 0x26, 0x1a, 0xba, 0xc2, 0x3f, 0xc7, 
  0x63, 0xa3, 0x5b, 0x0d, 0xf7, 0xb5, 0x21, 0x3b, 0x65, 0xf6, 0x1f, 0x34, 
  0x20, 0x70, 0x21, 0x35, 0x38, 0x62, 0xf0, 0x23, 0x12, 0x50, 0x4e, 0xca, 
  0xaf, 0x7f, 0xb1, 0xca, 0x06, 0xab, 0x6a, 0x27, 0x4a, 0xd1, 0x1a, 0x38, 
  0x49, 0xb7, 0xd2, 0x2d, 0x0e, 0xf2, 0xbc, 0x17, 0xeb, 0x0d, 0xe4, 0xbd, 
  0xf7, 0x36, 0x00, 0x71, 0x1d, 0x59, 0x5b, 0x6e, 0x47, 0x06, 0x44, 0xf6, 
  0x03, 0x3e, 0x4d, 0xd2, 0xda, 0xf3, 0x21, 0x3d, 0x10, 0xa9, 0x04, 0xb6, 
  0x7f, 0x16, 0xd8, 0x11, 0x0c, 0xc3, 0x56, 0x13, 0xb7, 0x10, 0x4e, 0x9a, 
  0x3e, 0x2c, 0xfe, 0xbf, 0xc8, 0x18, 0x09, 0x30, 0xc9, 0xf1, 0x1e, 0x15, 
  0x5d, 0x07, 0x33, 0xad, 0xe0, 0xe0, 0x71, 0x9e, 0x97, 0x6d, 0x5a, 0x09, 
  0x6a, 0x2b, 0xb1, 0x9a, 0xdc, 0x06, 0xf3, 0xe6, 0xfc, 0xe6, 0x05, 0xfd, 
  0xdb, 0x61, 0xbb, 0x2d, 0xb0, 0xe4, 0x62, 0x3d, 0xeb, 0x5a, 0xac, 0x16, 
  0xf2, 0xd2, 0x21, 0x2d, 0xb7, 0xe5, 0x25, 0xda, 0xab, 0x31, 0x16, 0x2e, 
  0xf6, 0xae, 0xee, 0x59, 0x9e, 0xd4, 0xba, 0xd1, 0xd7, 0xe1, 0x63, 0x17, 
  0x9c, 0xc1, 0x94, 0xda, 0xa9, 0x00, 0x1a, 0x07, 0x18, 0x2e, 0x81, 0x2f, 
  0x54, 0xb9, 0xae, 0x1a, 0x8a, 0x0c, 0x1b, 0x3e, 0xc0, 0x8a, 0x6f, 0x12, 
  0xb7, 0xc3, 0x0f, 0x07, 0x51, 0x4c, 0x64, 0x47, 0xa1, 0x3e, 0xcb, 0xf5, 
  0x4a, 0x02, 0xc5, 0xf0, 0x66, 0xae, 0xf4, 0x59, 0x66, 0x18, 0xfb, 0x49, 
  0xac, 0xfb, 0x2b, 0x44, 0xeb, 0xeb, 0xcb, 0x42, 0x21, 0x39, 0x5c, 0xc9, 
  0xe9, 0x5e, 0x5b, 0x42, 0xe6, 0xba, 0xa0, 0x0f, 0x2c, 0xbc, 0x04, 0x8d, 
  0xda, 0x4e, 0x23, 0x0e, 0x14, 0x34, 0x23, 0x62, 0xe5, 0xe9, 0xca, 0x31, 
  0xbc, 0x36, 0xf8, 0xee, 0xad, 0x3b, 0xd9, 0x4a, 0x1b, 0x0c, 0xec, 0xe7, 
  0xdf, 0xf4, 0x0f, 0x34, 0x38, 0xc4, 0xd8, 0x99, 0xc5, 0x5f, 0xde, 0x6e, 
  0x33, 0xb6, 0xb4, 0x26, 0xe5, 0x4a, 0xe6, 0xd8, 0xbc, 0x38, 0xd6, 0x35, 
  0x09, 0xdb, 0xe1, 0x29, 0xf9, 0x47, 0xcd, 0x2d, 0x39, 0x57, 0x14, 0xc5, 
  0xc0, 0xf6, 0x03, 0xac, 0xe0, 0xc6, 0x9f, 0x1c, 0xf8, 0x64, 0xe1, 0x0d, 
  0x46, 0xf3, 0x0a, 0x43, 0xc7, 0x52, 0x0c, 0xfc, 0x3b, 0x2d, 0x16, 0xb3, 
  0x52, 0x02, 0x3d, 0x02, 0x48, 0x05, 0x39, 0x01, 0x15, 0x2c, 0x33, 0x7f, 
  0x35, 0x23, 0xf7, 0xe9, 0x51, 0xf4, 0x37, 0x4e, 0x30, 0x09, 0x72, 0xe2, 
  0x1d, 0xde, 0xf2, 0x98, 0x6a, 0xef, 0xe9, 0xc7, 0x26, 0x37, 0x2d, 0x0e, 
  0x14, 0x32, 0x76, 0x2d, 0x9a, 0x43, 0x1e, 0x3d, 0x9c, 0x7f, 0x4b, 0x08, 
  0xe9, 0xf4, 0xfb, 0xa4, 0x20, 0x3f, 0xff, 0x8d, 0xdf, 0xde, 0x15, 0xb3, 
  0x34, 0xb7, 0x39, 0xeb, 0xf4, 0xf9, 0xb2, 0xb6, 0xe8, 0xcc, 0x09, 0x29, 
  0x2f, 0x85, 0x41, 0x12, 0x2a, 0x46, 0xc8, 0x07, 0x5c, 0xb9, 0x33, 0x49, 
  0x12, 0xfe, 0xfd, 0xb2, 0xcd, 0xbe, 0x0c, 0x5c, 0xc6, 0x21, 0xf9, 0x1e, 
  0x47, 0xec, 0xa3, 0xef, 0xee, 0xdc, 0x97, 0x1c, 0xf1, 0x8c, 0x19, 0x16, 
  0x1f, 0x02, 0x2c, 0xcc, 0xd0, 0xb7, 0x8d, 0x9a, 0xfb, 0x02, 0xcf, 0xd6, 
  0xfe, 0xce, 0x27, 0x81, 0x95, 0x40, 0x52, 0x30, 0xff, 0x0c, 0xf3, 0x37, 
  0x03, 0xf1, 0xff, 0x29, 0x9f, 0xed, 0x61, 0xa2, 0x2d, 0x58, 0x62, 0xfb, 
  0xc4, 0xd5, 0x60, 0xa8, 0x4d, 0xac, 0xce, 0x44, 0x43, 0xb1, 0xe0, 0x4d, 
  0x1e, 0xe7, 0xb6, 0xf8, 0x3b, 0x0d, 0x8f, 0x28, 0x17, 0xa3, 0xd4, 0xf3, 
  0x4d, 0x29, 0x43, 0xd0, 0xec, 0x0e, 0xd8, 0xcd, 0x01, 0xe6, 0x50, 0x40, 
  0xe1, 0x4e, 0xfb, 0x14, 0x1c, 0xe4, 0x0b, 0x6c, 0x0a, 0x09, 0xef, 0x29, 
  0x22, 0x36, 0x02, 0x92, 0x05, 0x03, 0x19, 0xba, 0x09, 0x1a, 0x64, 0x3a, 
  0xfb, 0xe8, 0xbd, 0x2d, 0xf8, 0x61, 0xaf, 0x29, 0xc2, 0x0a, 0xb4, 0x55, 
  0x13, 0xf7, 0xb8, 0xff, 0xc7, 0x3e, 0xe6, 0x07, 0x6e, 0xc1, 0xba, 0xff, 
  0x1b, 0xfb, 0x55, 0xc4, 0xc8, 0x16, 0xe0, 0xfe, 0x2a, 0x53, 0x3c, 0xa1, 
  0x70, 0xf7, 0x73, 0xd4, 0xd9, 0x18, 0x25, 0x47, 0xd5, 0x58, 0xe2, 0x0f, 
  0xe1, 0xb4, 0xbd, 0xe0, 0xdb, 0xad, 0xbd, 0x7f, 0xe9, 0xd3, 0x3d, 0xcf, 
  0x30, 0x16, 0x03, 0x41, 0xb6, 0x33, 0x5a, 0xda, 0xc5, 0x40, 0x3c, 0x5c, 
  0x66, 0x22, 0x47, 0xd5, 0xb0, 0x2a, 0xaa, 0xa2, 0x3d, 0x56, 0x75, 0x35, 
  0x16, 0x5c, 0xb2, 0xaf, 0x09, 0x25, 0xc8, 0x90, 0x6c, 0x17, 0xce, 0x07, 
  0xa3, 0xee, 0x1e, 0xec, 0xda, 0xda, 0xb7, 0x37, 0x13, 0x62, 0xdd, 0xe4, 
  0xc4, 0xfe, 0xf2, 0xf2, 0x31, 0xf0, 0x4d, 0xe5, 0x4d, 0x4f, 0x27, 0xc3, 
  0x3b, 0x3e, 0xd7, 0x50, 0x38, 0x34, 0x0d, 0xc8, 0x9e, 0x4c, 0xba, 0x27, 
  0x69, 0x19, 0xb4, 0x56, 0x69, 0x30, 0xed, 0x37, 0x10, 0x4a, 0x15, 0xf4, 
  0xeb, 0x87, 0x9c, 0xb9, 0x4f, 0xc2, 0xae, 0xc1, 0x66, 0x81, 0x62, 0x3a, 
  0xb3, 0x31, 0xf8, 0x1e, 0x36, 0x34, 0x07, 0x29, 0x4d, 0x23, 0xc6, 0x2a, 
  0x65, 0x9d, 0xb5, 0xf3, 0x2d, 0x60, 0xb8, 0x42, 0x43, 0x04, 0xb5, 0xda, 
  0xd7, 0xc7, 0x3d, 0x64, 0x21, 0xd9, 0xb4, 0x22, 0x7a, 0x1d, 0xc4, 0x37, 
  0x58, 0x57, 0xc8, 0x33, 0x01, 0x4f, 0x71, 0xb1, 0xe8, 0x56, 0xf1, 0xfc, 
  0x18, 0x17, 0x02, 0x56, 0xda, 0xc9, 0xe2, 0x9a, 0xfd, 0x54, 0x1f, 0x1e, 
  0xba, 0xf4, 0x0a, 0xde, 0x71, 0x43, 0xa7, 0xe3, 0x3e, 0xa8, 0x12, 0xb7, 
  0xf2, 0x4a, 0x45, 0xce, 0xb5, 0xb9, 0x37, 0xc1, 0xf8, 0x1f, 0xec, 0x62, 
  0xcd, 0xea, 0x0d, 0x1d, 0x36, 0x28, 0x1e, 0x3b, 0x6c, 0xc2, 0xe3, 0xc9, 
  0x1f, 0x0c, 0x55, 0x04, 0x81, 0x98, 0xc3, 0xca, 0x26, 0x69, 0x3f, 0x22, 
  0xb0, 0xc5, 0x2e, 0x07, 0xa4, 0x40, 0xbb, 0xfc, 0xfc, 0xd2, 0xd4, 0x69, 
  0x38, 0xf5, 0xa8, 0xfe, 0xdb, 0x4e, 0xf3, 0x53, 0xd0, 0x35, 0x1a, 0xe3, 
  0xe5, 0x51, 0x05, 0xe5, 0xf4, 0x1b, 0x11, 0x69, 0xb5, 0x86, 0x1a, 0x28, 
  0x1b, 0x6d, 0x1d, 0xe6, 0x30, 0xf0, 0x02, 0xe8, 0xb6, 0x7f, 0xec, 0xd4, 
  0x23, 0xe1, 0xe3, 0xc5, 0xca, 0x6f, 0x05, 0xac, 0x46, 0x4e, 0xd4, 0x20, 
  0xe6, 0xf5, 0x25, 0xcd, 0x89, 0x07, 0xd4, 0x8b, 0x46, 0x7a, 0x12, 0x50, 
  0x13, 0x58, 0x64, 0x19, 0x06, 0x19, 0xf0, 0xc2, 0x2a, 0x09, 0x23, 0xe0, 
  0x1d, 0xc3, 0xdd, 0xe0, 0xf4, 0x09, 0xad, 0x40, 0x51, 0xe6, 0x4f, 0x30, 
  0xe1, 0x38, 0x69, 0x63, 0x09, 0xeb, 0x05, 0xd2, 0x58, 0xc8, 0xcd, 0x69, 
  0x28, 0x64, 0x3f, 0xf4, 0x66, 0xca, 0x41, 0xf3, 0xc9, 0xe3, 0xec, 0xdd, 
  0x20, 0xff, 0x39, 0x8f, 0xa8, 0x24, 0xbb, 0x51, 0xc2, 0xd9, 0x35, 0x25, 
  0xc5, 0xbb, 0x3d, 0xb3, 0x2a, 0xfb, 0xfb, 0x31, 0x95, 0xa8, 0x12, 0x14, 
  0x36, 0x12, 0xda, 0x17, 0xce, 0x36, 0xbf, 0x53, 0x25, 0xcf, 0x2f, 0x2d, 
  0x7f, 0x2b, 0xc7, 0x2b, 0x04, 0xae, 0x1b, 0xb5, 0x04, 0x1e, 0x96, 0x19, 
  0xf6, 0xfb, 0x1e, 0x41, 0x29, 0x29, 0xa7, 0x79, 0xed, 0xd8, 0x42, 0x42, 
  0x3a, 0x58, 0x0c, 0xfb, 0x9f, 0x32, 0x43, 0xe8, 0xed, 0x12, 0x33, 0xdc, 
  0x3c, 0xd4, 0x44, 0xef, 0x3c, 0x16, 0x48, 0xc4, 0x23, 0x23, 0xf4, 0xf0, 
  0xce, 0x51, 0xd6, 0xf0, 0xf1, 0x28, 0x40, 0xa5, 0xd7, 0x2c, 0xa6, 0x53, 
  0x2f, 0x19, 0xb7, 0x0c, 0xf2, 0x01, 0xa1, 0xf0, 0xa4, 0x3a, 0x81, 0x4f, 
  0x5d, 0x59, 0xe4, 0x33, 0x2f, 0x2c, 0x3e, 0xb7, 0x7f, 0x13, 0x89, 0xab, 
  0xeb, 0xe5, 0xae, 0xc9, 0x27, 0x53, 0x07, 0xe0, 0x07, 0x75, 0xdc, 0xcf, 
  0x28, 0x35, 0xf7, 0xb2, 0xbf, 0xd5, 0xa1, 0x26, 0x5b, 0xc5, 0x7d, 0xf9, 
  0x6f, 0x3b, 0x78, 0x58, 0x4b, 0xee, 0x01, 0xc9, 0xe5, 0xde, 0xba, 0x13, 
  0x0f, 0xed, 0x5f, 0xfe, 0x94, 0x6c, 0x24, 0x4b, 0xd4, 0x57, 0xe7, 0x0b, 
  0xd7, 0x1a, 0x17, 0xee, 0x1d, 0xa8, 0xc3, 0x41, 0xb7, 0xe3, 0x24, 0xdb, 
  0xd5, 0xd9, 0x41, 0x15, 0xdd, 0xdf, 0x49, 0x45, 0x32, 0x0f, 0xe2, 0x98, 
  0xe0, 0x17, 0x1f, 0x72, 0xac, 0xc4, 0x7f, 0xfe, 0x2a, 0x07, 0xdc, 0x23, 
  0x3d, 0xef, 0xed, 0xce, 0xfa, 0xdc, 0x56, 0x19, 0x9f, 0xdd, 0xf6, 0xaf, 
  0x0c, 0xbf, 0x76, 0x47, 0x1f, 0xcb, 0x3c, 0x0e, 0xbc, 0xed, 0x07, 0x1c, 
  0xfa, 0xb7, 0x2a, 0xf4, 0xca, 0x50, 0x50, 0x2b, 0x48, 0x07, 0xcb, 0xd9, 
  0x52, 0xd3, 0x20, 0x52, 0xe0, 0x3a, 0xdc, 0xe3, 0x5c, 0x02, 0xc1, 0x29, 
  0xdd, 0x0d, 0xc6, 0xbd, 0x0a, 0x30, 0xff, 0x21, 0x38, 0x34, 0x1f, 0x48, 
  0xf1, 0x43, 0x1b, 0x02, 0x8c, 0xd2, 0xdf, 0x4b, 0x5d, 0xe8, 0x4f, 0x2b, 
  0xda, 0xf8, 0xce, 0x59, 0xc1, 0x49, 0xe3, 0xd3, 0x27, 0xf9, 0xdc, 0x3b, 
  0x35, 0x2c, 0x13, 0x6e, 0xd1, 0xe8, 0xd8, 0x11, 0x60, 0xda, 0x1b, 0xa0, 
  0x29, 0x3a, 0x82, 0xcd, 0x79, 0x26, 0x32, 0xaa, 0x81, 0xf8, 0x96, 0xc9, 
  0xe2, 0x0d, 0x01, 0x2f, 0xd2, 0x3f, 0xf0, 0xe6, 0x3d, 0x3e, 0x5c, 0xb7, 
  0xb9, 0xf0, 0xc8, 0x26, 0xfc, 0xcc, 0x39, 0x93, 0xf0, 0x25, 0xbf, 0x00, 
  0xfc, 0x01, 0xa1, 0xab, 0x13, 0x21, 0x37, 0x62, 0xdc, 0x15, 0x08, 0x26, 
  0x5f, 0xd9, 0x0d, 0xb9, 0xb7, 0xd9, 0xa4, 0xf8, 0x07, 0xae, 0x45, 0x54, 
  0x25, 0xe0, 0x16, 0x13, 0xe9, 0xd4, 0x3f, 0x68, 0xc8, 0x16, 0x24, 0x03, 
  0x0f, 0xd3, 0x24, 0xd3, 0x07, 0xed, 0xe8, 0xf7, 0x1e, 0xfa, 0xcb, 0xb8, 
  0xef, 0xb3, 0x1e, 0x7b, 0xaf, 0xe1, 0xec, 0x2c, 0x98, 0x3a, 0xf7, 0xd4, 
  0x9a, 0xa6, 0xdb, 0x96, 0xb9, 0xfc, 0xd4, 0xd9, 0xc3, 0x4a, 0x50, 0xd2, 
  0x16, 0xb4, 0x0a, 0x7b, 0xcd, 0xb9, 0x5f, 0x32, 0x3c, 0x3a, 0xe1, 0x31, 
  0x0f, 0x56, 0x02, 0x5d, 0xa5, 0x2c, 0x39, 0x1b, 0x93, 0xd9, 0x5b, 0x1b, 
  0xf2, 0x22, 0xae, 0x12, 0xeb, 0x91, 0x4c, 0xe2, 0xad, 0x58, 0xd2, 0x60, 
  0xf0, 0xe9, 0x70, 0xfa, 0xc2, 0xb3, 0x06, 0x56, 0xe1, 0x10, 0x56, 0x81, 
  0xe0, 0x44, 0xa7, 0xba, 0x1d, 0x55, 0x5d, 0xd3, 0x24, 0x66, 0xc7, 0x6c, 
  0x2b, 0xfb, 0xcc, 0xba, 0x89, 0xfb, 0x98, 0xd7, 0xa7, 0xe1, 0xb5, 0x1f, 
  0xdf, 0xed, 0xc6, 0x53, 0x4b, 0x61, 0x01, 0x99, 0xfe, 0x6d, 0x16, 0xf5, 
  0xa6, 0xeb, 0xc3, 0xb2, 0xe7, 0xcf, 0xc5, 0xd1, 0x0d, 0xc4, 0x3c, 0xd4, 
  0xfc, 0x00, 0x3b, 0xf6, 0x3d, 0x54, 0x2d, 0x1f, 0x15, 0xc3, 0xde, 0x08, 
  0x68, 0xcd, 0x0b, 0xc8, 0x74, 0xbe, 0x09, 0xed, 0xc5, 0xe6, 0xb2, 0x21, 
  0x72, 0xc0, 0xed, 0xe9, 0xef, 0x1f, 0x40, 0x46, 0xd6, 0xe8, 0x34, 0xbc, 
  0x15, 0xeb, 0xf4, 0x26, 0x0d, 0x13, 0x0b, 0xf2, 0x56, 0xe5, 0x73, 0xd9, 
  0xda, 0xd9, 0x44, 0xd8, 0xe1, 0x76, 0xf5, 0xdf, 0x7c, 0xf8, 0xe1, 0xf6, 
  0xef, 0x5b, 0xea, 0x1e, 0x7f, 0x3e, 0x4d, 0xce, 0xe1, 0xfb, 0x60, 0x41, 
  0x81, 0x24, 0x09, 0xf9, 0x5b, 0x81, 0xb9, 0x55, 0x3b, 0x51, 0x0f, 0x96, 
  0x12, 0x61, 0xcf, 0x69, 0xa0, 0x60, 0xdc, 0x1f, 0x12, 0xae, 0xfa, 0xb2, 
  0xaa, 0xd1, 0xa7, 0xdd, 0x06, 0xc5, 0xd8, 0x56, 0x58, 0xff, 0xae, 0x71, 
  0x21, 0xf6, 0xba, 0x7e, 0xb5, 0xe6, 0x30, 0x8e, 0x33, 0x2b, 0xb9, 0xa3, 
  0xb0, 0xde, 0x9f, 0xe2, 0x49, 0x6b, 0xc5, 0xb0, 0x13, 0xb1, 0xbf, 0x5c, 
  0xe5, 0x10, 0x3a, 0xfe, 0xc4, 0xde, 0x45, 0x61, 0x19, 0x31, 0x95, 0x74, 
  0x53, 0x44, 0x8e, 0x10, 0xac, 0x9e, 0x4b, 0xf5, 0xee, 0xf8, 0x32, 0x2d, 
  0x26, 0xd3, 0xe6, 0xe7, 0x0f, 0x8f, 0x8f, 0xf2, 0x2a, 0xb9, 0x48, 0xaf, 
  0xfc, 0xd6, 0x22, 0x1d, 0x2d, 0xc6, 0x84, 0xf1, 0xa3, 0xe7, 0xee, 0x49, 
  0xac, 0x69, 0x0d, 0xbe, 0xbc, 0xe9, 0xb5, 0x28, 0xb7, 0x22, 0x09, 0xe4, 
  0x67, 0x28, 0x34, 0xac, 0xb2, 0xcc, 0xb3, 0xe7, 0x57, 0x92, 0xed, 0x41, 
  0xa8, 0x1c, 0xab, 0xaf, 0xac, 0x2a, 0x4a, 0x45, 0x53, 0x78, 0xe5, 0xc1, 
  0xa1, 0x16, 0x81, 0xfb, 0x91, 0xf6, 0xdf, 0x1a, 0x6f, 0x21, 0x0f, 0x13, 
  0xd9, 0x6d, 0xa3, 0xb1, 0x03, 0xd2, 0xe4, 0x03, 0x45, 0xff, 0xe4, 0x4f, 
  0x5b, 0x04, 0x3a, 0x5b, 0xe9, 0xcc, 0x22, 0x20, 0xfc, 0x05, 0xd7, 0xc9, 
  0xc1, 0x06, 0xe6, 0x17, 0xfb, 0xf6, 0x3a, 0x2d, 0xcc, 0xf0, 0xba, 0x32, 
  0x2d, 0x3d, 0xd1, 0xef, 0xec, 0xed, 0x1b, 0xcf, 0xf0, 0x2e, 0x1e, 0x21, 
  0x95, 0x81, 0xb7, 0x3e, 0xcf, 0x65, 0x0a, 0x1f, 0x38, 0x0e, 0x3b, 0xf4, 
  0x1d, 0x14, 0x04, 0x7a, 0xbc, 0x06, 0x31, 0xe2, 0x18, 0x2c, 0x1f, 0x44, 
  0x58, 0xeb, 0x98, 0x57, 0xe0, 0xd2, 0x4e, 0xa9, 0xf1, 0xda, 0x1c, 0x31, 
  0xf0, 0xd1, 0xb8, 0x09, 0x07, 0xae, 0x6f, 0x3d, 0x83, 0x37, 0x3f, 0xfb, 
  0x86, 0x8d, 0x52, 0xdd, 0xef, 0xd7, 0xa7, 0x3d, 0x71, 0x14, 0x1f, 0x6b, 
  0xcc, 0x0c, 0x99, 0x29, 0xc4, 0x25, 0xe0, 0x06, 0xaa, 0x14, 0xce, 0xc4, 
  0x12, 0x50, 0xc1, 0xb9, 0x21, 0xf7, 0x02, 0x3b, 0xca, 0x23, 0xf9, 0xff, 
  0x23, 0x49, 0x22, 0xfd, 0x2a, 0x46, 0x3a, 0xa8, 0x00, 0x74, 0xe8, 0x45, 
  0x39, 0xbe, 0xb2, 0x50, 0x43, 0x56, 0xe6, 0x09, 0x91, 0xb7, 0x34, 0x31, 
  0xc5, 0x1b, 0xd8, 0xb7, 0x3d, 0xab, 0xd3, 0x3f, 0xe8, 0x32, 0xa6, 0x05, 
  0x26, 0x20, 0xea, 0xc3, 0xbb, 0xb0, 0x10, 0xd5, 0xae, 0x01, 0xc3, 0x9a, 
  0xee, 0x7d, 0x6d, 0xd3, 0x2c, 0x3a, 0x33, 0x01, 0x64, 0x9e, 0x1e, 0x63, 
  0xd2, 0x18, 0x23, 0x24, 0xa7, 0xa5, 0x22, 0x7d, 0x2b, 0x90, 0x5d, 0x5b, 
  0x53, 0xad, 0x81, 0x18, 0xcf, 0x1e, 0x2d, 0x36, 0x0b, 0x27, 0x8f, 0x40, 
  0x0f, 0xb6, 0x1d, 0x60, 0xcc, 0x00, 0x5e, 0xb7, 0x54, 0xd3, 0x4f, 0xcd, 
  0xaf, 0xe6, 0xd0, 0xe7, 0x37, 0xb6, 0x55, 0x9d, 0x4e, 0x53, 0x19, 0x22, 
  0xd5, 0x27, 0x15, 0xc3, 0x30, 0x36, 0x1f, 0x95, 0xa2, 0xc2, 0xb4, 0xf5, 
  0x1d, 0x6a, 0x42, 0xb4, 0x03, 0x31, 0x29, 0xff, 0x0d, 0xf7, 0xba, 0x46, 
  0xdd, 0x74, 0x43, 0xbb, 0x17, 0x97, 0x2b, 0x24, 0xc1, 0xe0, 0x10, 0x98, 
  0xcf, 0xac, 0x4f, 0xdc, 0x98, 0x38, 0xd6, 0xe6, 0x05, 0x19, 0xbd, 0x23, 
  0x0c, 0xb9, 0x3d, 0xdc, 0xb9, 0xd7, 0x36, 0x38, 0x02, 0x4f, 0x11, 0x59, 
  0xec, 0xcf, 0x02, 0x08, 0xc1, 0x09, 0xb3, 0xbd, 0x09, 0x66, 0xae, 0x61, 
  0x47, 0x1d, 0xba, 0xbf, 0x48, 0xb0, 0xae, 0xb3, 0x7f, 0xea, 0x9a, 0x4b, 
  0x50, 0xa8, 0x0f, 0xfc, 0x23, 0x45, 0x53, 0xae, 0x19, 0x12, 0x37, 0x3b, 
  0xb6, 0x5f, 0x6c, 0x3f, 0xf9, 0xb3, 0x70, 0x43, 0xa0, 0xa1, 0x3f, 0x0d, 
  0x25, 0xc5, 0x50, 0xaa, 0xe7, 0xba, 0xbc, 0xe8, 0x4c, 0xcc, 0xbd, 0xd9, 
  0xcd, 0x47, 0x84, 0x2c, 0xfe, 0x2f, 0x12, 0xd1, 0xb4, 0xb7, 0x44, 0x2a, 
  0x67, 0x1a, 0x76, 0x24, 0x72, 0xbd, 0xe9, 0x93, 0xcd, 0xa3, 0x49, 0x08, 
  0xe9, 0xf2, 0xf1, 0xe0, 0xb9, 0xe6, 0xd9, 0xb3, 0x62, 0xf8, 0x7f, 0x17, 
  0xe0, 0x0b, 0xfa, 0xf2, 0xee, 0x59, 0xa6, 0x81, 0x10, 0x63, 0xe3, 0xe7, 
  0x22, 0xc4, 0x3a, 0x70, 0xdd, 0xdb, 0x8e, 0xad, 0x51, 0x2a, 0x42, 0xb6, 
  0x44, 0xf2, 0x10, 0x46, 0x1c, 0x81, 0x14, 0xd1, 0xab, 0x99, 0x12, 0xe4, 
  0x42, 0xb3, 0x5b, 0x00, 0xe3, 0x26, 0xc5, 0xc8, 0x57, 0xe5, 0x53, 0xe3, 
  0xfd, 0x40, 0xa9, 0xf9, 0xc6, 0xab, 0xdc, 0xe0, 0x3c, 0xf1, 0xee, 0x3f, 
  0x50, 0xd2, 0x1f, 0x39, 0xe9, 0xe8, 0x5f, 0x41, 0xc8, 0xbe, 0xdb, 0x3f, 
  0xe8, 0x2f, 0x49, 0x1b, 0xde, 0xf5, 0x53, 0x17, 0xfc, 0xdf, 0xc2, 0x18, 
  0xd8, 0xd8, 0x16, 0x1f, 0x1e, 0xe5, 0xba, 0x06, 0xdb, 0x2b, 0x2d, 0x37, 
  0xf4, 0x44, 0xf3, 0xbb, 0x23, 0xc7, 0xb5, 0xee, 0xec, 0x18, 0xa4, 0x03, 
  0x09, 0x3e, 0xf1, 0x96, 0x3b, 0x1f, 0xec, 0x10, 0xfc, 0x45, 0x11, 0x3a, 
  0x4d, 0x2d, 0xeb, 0xf9, 0xb2, 0xca, 0xff, 0xff, 0x04, 0x00, 0x00, 0x00, 
  0x00, 0x01, 0x00, 0x00, 0xdf, 0xfc, 0xff, 0xff, 0x3a, 0xfa, 0xff, 0xff, 
  0x6d, 0xfb, 0xff, 0xff, 0x76, 0xf6, 0xff, 0xff, 0x11, 0x00, 0x00, 0x00, 
  0xb1, 0xfc, 0xff, 0xff, 0xce, 0xfc, 0xff, 0xff, 0x47, 0x06, 0x00, 0x00, 
  0xfd, 0x00, 0x00, 0x00, 0xa3, 0x07, 0x00, 0x00, 0xfe, 0x03, 0x00, 0x00, 
  0x77, 0x01, 0x00, 0x00, 0xa7, 0xfe, 0xff, 0xff, 0xd4, 0x05, 0x00, 0x00, 
  0x7f, 0x05, 0x00, 0x00, 0xe1, 0xfc, 0xff, 0xff, 0xed, 0xfb, 0xff, 0xff, 
  0x58, 0x07, 0x00, 0x00, 0x0d, 0x08, 0x00, 0x00, 0x61, 0xf9, 0xff, 0xff, 
  0xf6, 0xfc, 0xff, 0xff, 0x4a, 0x04, 0x00, 0x00, 0xf6, 0xf8, 0xff, 0xff, 
  0xcb, 0x06, 0x00, 0x00, 0xd4, 0xfe, 0xff, 0xff, 0x49, 0x05, 0x00, 0x00, 
  0x6b, 0x01, 0x00, 0x00, 0x3d, 0xfe, 0xff, 0xff, 0x80, 0xfc, 0xff, 0xff, 
  0x74, 0xfe, 0xff, 0xff, 0x74, 0x04, 0x00, 0x00, 0x11, 0x02, 0x00, 0x00, 
  0xff, 0xfd, 0xff, 0xff, 0x64, 0xff, 0xff, 0xff, 0x6b, 0x02, 0x00, 0x00, 
  0x60, 0xfa, 0xff, 0xff, 0xf5, 0x00, 0x00, 0x00, 0x48, 0x02, 0x00, 0x00, 
  0x28, 0xfc, 0xff, 0xff, 0x22, 0x08, 0x00, 0x00, 0x2e, 0x05, 0x00, 0x00, 
  0x7e, 0xff, 0xff, 0xff, 0xfc, 0xfe, 0xff, 0xff, 0x3c, 0xff, 0xff, 0xff, 
  0x81, 0xfc, 0xff, 0xff, 0x47, 0xfb, 0xff, 0xff, 0x50, 0x01, 0x00, 0x00, 
  0x2c, 0xfe, 0xff, 0xff, 0x65, 0xfc, 0xff, 0xff, 0x0d, 0x09, 0x00, 0x00, 
  0x56, 0x05, 0x00, 0x00, 0x10, 0xfc, 0xff, 0xff, 0x5e, 0x03, 0x00, 0x00, 
  0x1e, 0xff, 0xff, 0xff, 0x41, 0x06, 0x00, 0x00, 0x31, 0xfd, 0xff, 0xff, 
  0xe1, 0xfe, 0xff, 0xff, 0x28, 0xfc, 0xff, 0xff, 0x1d, 0x06, 0x00, 0x00, 
  0x14, 0x03, 0x00, 0x00, 0xe6, 0xf9, 0xff, 0xff, 0x73, 0x03, 0x00, 0x00, 
  0xd4, 0x03, 0x00, 0x00, 0x57, 0x02, 0x00, 0x00, 0xbe, 0xcb, 0xff, 0xff, 
  0x04, 0x00, 0x00, 0x00, 0x00, 0x30, 0x00, 0x00, 0x45, 0xfb, 0x08, 0xfc, 
  0xe4, 0x2d, 0x39, 0x50, 0xb4, 0x0e, 0xbe, 0x44, 0xda, 0x0e, 0x0a, 0x0e, 
  0xc2, 0x6b, 0x2e, 0xcc, 0x47, 0xdd, 0x94, 0x5d, 0x1c, 0xa7, 0xed, 0x08, 
  0x50, 0xc2, 0xbf, 0x4a, 0xe5, 0x48, 0xcd, 0xc8, 0x02, 0x39, 0xfc, 0x22, 
  0x2c, 0x06, 0x2c, 0x3c, 0x1c, 0xa6, 0x19, 0x14, 0x42, 0xf1, 0x55, 0x41, 
  0x01, 0x53, 0xbd, 0xdc, 0x0b, 0x0a, 0x50, 0x19, 0x02, 0x7f, 0x70, 0x9a, 
  0xf7, 0x5d, 0xa8, 0xb0, 0xe4, 0x66, 0x09, 0xf5, 0x28, 0x16, 0x13, 0xe7, 
  0x4d, 0xb2, 0x0e, 0x3b, 0x28, 0x67, 0x4d, 0xf9, 0xb5, 0x3c, 0xc2, 0xf2, 
  0x47, 0xb3, 0x32, 0xb3, 0xe9, 0x50, 0xba, 0xb9, 0x0f, 0xd8, 0xef, 0xf3, 
  0xe8, 0x29, 0x45, 0x3f, 0x15, 0xeb, 0xed, 0x49, 0xcc, 0x9d, 0x3a, 0x0d, 
  0xbf, 0x20, 0x08, 0x1b, 0x05, 0x4f, 0x24, 0xb9, 0x1c, 0xba, 0x28, 0xdb, 
  0xd3, 0xb2, 0xed, 0xfd, 0x30, 0xc0, 0x03, 0xf1, 0x09, 0x3d, 0xc2, 0xe4, 
  0x71, 0xbd, 0x08, 0xce, 0x08, 0x00, 0x68, 0xd3, 0xac, 0x27, 0xfe, 0x47, 
  0x37, 0x0e, 0xad, 0x26, 0x39, 0xf8, 0xe1, 0xc9, 0x1a, 0x11, 0xcb, 0xdf, 
  0x68, 0x27, 0xec, 0xe6, 0x43, 0x3e, 0xff, 0xe8, 0xc6, 0x2e, 0xbc, 0x46, 
  0x2b, 0x03, 0xb9, 0x1c, 0x2a, 0x3d, 0x21, 0xa3, 0x2b, 0xb2, 0x4f, 0xd0, 
  0x20, 0x4a, 0xc9, 0x20, 0x26, 0x0f, 0xca, 0xde, 0x99, 0x5c, 0x00, 0xad, 
  0xf6, 0xc4, 0x48, 0xb4, 0x4c, 0x4e, 0xc3, 0x26, 0x59, 0x26, 0xd6, 0x7b, 
  0x60, 0xb4, 0xae, 0xb0, 0xee, 0xdc, 0xec, 0x5d, 0x07, 0x2f, 0x0c, 0x48, 
  0x17, 0xd3, 0xfb, 0x7f, 0x16, 0x38, 0xef, 0x92, 0xfb, 0xb1, 0x03, 0x2a, 
  0xc8, 0x52, 0x3f, 0x5f, 0x9f, 0x17, 0x18, 0xd5, 0x09, 0x20, 0x99, 0xc5, 
  0x0a, 0x3e, 0x24, 0x25, 0x26, 0xa6, 0xb6, 0x2b, 0x66, 0xc5, 0x2f, 0xf3, 
  0xfe, 0xab, 0xbf, 0xdb, 0x39, 0xcd, 0xe3, 0x5a, 0xca, 0x68, 0x47, 0xbd, 
  0x4f, 0xfe, 0xc4, 0x2d, 0x26, 0x38, 0x33, 0x62, 0xbb, 0x71, 0xcb, 0x5c, 
  0xf5, 0x16, 0xe3, 0x17, 0x95, 0x13, 0xcf, 0xb9, 0x97, 0xb0, 0xcd, 0xfe, 
  0xa5, 0xb8, 0xdd, 0x41, 0x27, 0xf6, 0x05, 0xd7, 0x36, 0xd0, 0xa8, 0xeb, 
  0x03, 0x15, 0xd7, 0x0a, 0x0a, 0xc2, 0xb4, 0x07, 0x55, 0x60, 0xc8, 0xce, 
  0x84, 0x6b, 0xae, 0x25, 0x57, 0x3d, 0xef, 0x3a, 0x0f, 0xfd, 0x46, 0x0f, 
  0xe1, 0xff, 0xd1, 0x5c, 0x23, 0x92, 0xae, 0x3d, 0x4f, 0x2c, 0xb6, 0xd6, 
  0xd1, 0x58, 0x8c, 0xae, 0x23, 0xa8, 0x9c, 0xac, 0xfa, 0xf2, 0x61, 0xc0, 
  0xf7, 0xb6, 0xad, 0xd8, 0xbc, 0xd2, 0x68, 0x16, 0xdb, 0xad, 0xe0, 0xa3, 
  0xa8, 0x28, 0xee, 0x00, 0x22, 0x2e, 0xbf, 0x58, 0xd6, 0x9c, 0xcb, 0xd3, 
  0x74, 0xe4, 0x0f, 0xee, 0xed, 0xc5, 0xfe, 0x58, 0x55, 0xe8, 0x33, 0x08, 
  0x60, 0x00, 0x30, 0xdb, 0xbf, 0x31, 0xf4, 0xad, 0x52, 0xeb, 0x10, 0x02, 
  0xe9, 0xe3, 0xc3, 0x47, 0x72, 0x31, 0x7a, 0x37, 0xe9, 0xba, 0x0f, 0xd4, 
  0x5c, 0x58, 0xe0, 0xfc, 0xe6, 0x24, 0xfb, 0x00, 0x21, 0x1a, 0x72, 0x2e, 
  0x08, 0xea, 0x00, 0x19, 0xe6, 0x63, 0xb5, 0x76, 0xea, 0xc1, 0xc4, 0x50, 
  0x45, 0x61, 0xbc, 0xb5, 0x7f, 0x05, 0xe6, 0xec, 0x30, 0x35, 0x23, 0xd4, 
  0x16, 0x20, 0x5b, 0xc7, 0xd2, 0x19, 0x0b, 0xe2, 0xdd, 0x2c, 0xbb, 0x47, 
  0x44, 0xfb, 0x30, 0xda, 0x05, 0x19, 0x1a, 0x4f, 0x53, 0xe2, 0x1d, 0xb4, 
  0x15, 0x27, 0x53, 0x0c, 0x12, 0x17, 0x15, 0xf7, 0xc8, 0x40, 0x43, 0x56, 
  0xe4, 0xe1, 0x24, 0x25, 0xb5, 0x3c, 0x23, 0x18, 0x05, 0x27, 0x44, 0xcc, 
  0x1a, 0x32, 0x29, 0x3a, 0x06, 0x25, 0x4c, 0x11, 0xe5, 0x37, 0x1e, 0x28, 
  0x24, 0x48, 0xe0, 0x67, 0x24, 0x53, 0xe4, 0x23, 0xb2, 0xad, 0xbd, 0xa2, 
  0xf2, 0x86, 0x23, 0x67, 0xb3, 0xe0, 0x0c, 0xcf, 0x01, 0xe3, 0x40, 0x03, 
  0x29, 0x01, 0xda, 0xf7, 0xc1, 0xf9, 0xcc, 0x02, 0xd6, 0xbc, 0x10, 0xc8, 
  0x02, 0x08, 0xa0, 0x20, 0x22, 0x18, 0xfc, 0x3d, 0x16, 0x3d, 0xe8, 0x3f, 
  0xed, 0xd7, 0x20, 0xdc, 0x0c, 0xe3, 0x30, 0xf0, 0x3a, 0xcc, 0x5a, 0x4e, 
  0xc9, 0xee, 0x03, 0xdf, 0xca, 0x48, 0x40, 0x1e, 0xe7, 0xd0, 0xcc, 0xd7, 
  0x22, 0x2b, 0xf4, 0xd4, 0x0b, 0x08, 0xf6, 0x3e, 0xba, 0xbe, 0x4e, 0xcc, 
  0x21, 0x47, 0x47, 0x22, 0xda, 0x04, 0x04, 0xfe, 0xfa, 0xdf, 0x96, 0x4e, 
  0x28, 0x2d, 0xb6, 0xb5, 0xe2, 0xe2, 0x09, 0xd0, 0xf2, 0xba, 0xd6, 0x1c, 
  0x53, 0x09, 0xf5, 0x3f, 0xae, 0x15, 0x56, 0xab, 0x02, 0xef, 0xfe, 0x0c, 
  0x49, 0xd4, 0x2f, 0x20, 0xf3, 0xd1, 0xe6, 0x1c, 0xd6, 0x30, 0xcf, 0xbf, 
  0x20, 0x15, 0x0e, 0xbd, 0x14, 0xf5, 0x2a, 0xe1, 0x0d, 0x54, 0x56, 0xfe, 
  0x3f, 0x01, 0xfc, 0x07, 0x9d, 0xf4, 0x39, 0xde, 0x23, 0xb7, 0x28, 0xa6, 
  0x7f, 0xf5, 0xd9, 0xd7, 0x30, 0x61, 0xf3, 0x49, 0xb8, 0x36, 0x42, 0xe9, 
  0x18, 0xc9, 0x3e, 0x1f, 0x34, 0x20, 0x23, 0x10, 0x27, 0x00, 0xdb, 0xd5, 
  0xb5, 0x0e, 0x42, 0xc2, 0xf4, 0x05, 0xe7, 0x1a, 0xcb, 0x49, 0xdf, 0x48, 
  0x3b, 0xda, 0xc0, 0xc7, 0x06, 0x2c, 0x17, 0x07, 0xf4, 0xcb, 0x52, 0xab, 
  0x27, 0x70, 0x0c, 0xea, 0xe3, 0x05, 0x21, 0xfe, 0xb5, 0x4b, 0x1f, 0xe7, 
  0x02, 0xa4, 0x2c, 0xfd, 0xec, 0xd8, 0xe3, 0x0b, 0x2a, 0xfa, 0x1a, 0x44, 
  0xc2, 0x12, 0x68, 0xfb, 0x56, 0xc5, 0xd0, 0x50, 0x3c, 0x10, 0x1c, 0xff, 
  0x3c, 0x40, 0x31, 0xe5, 0xc3, 0x01, 0x5f, 0x00, 0xfc, 0x1a, 0xec, 0x03, 
  0x23, 0x01, 0x3f, 0x52, 0x25, 0xc7, 0x46, 0xdb, 0xf3, 0x30, 0xf3, 0xdb, 
  0x36, 0x1d, 0x5c, 0x1e, 0xd6, 0xa2, 0xb7, 0x3b, 0x93, 0xd3, 0x91, 0xe1, 
  0x81, 0x31, 0xfb, 0x98, 0xad, 0x9a, 0xb1, 0x5c, 0xfa, 0x53, 0xf6, 0x04, 
  0x31, 0x23, 0x40, 0xe7, 0xef, 0xd1, 0x0c, 0x19, 0xe5, 0xf5, 0x05, 0xa5, 
  0x70, 0x03, 0xe2, 0xb9, 0x98, 0xc3, 0x1f, 0x63, 0x4d, 0xae, 0x34, 0xd5, 
  0x3a, 0x38, 0xf9, 0x2f, 0x34, 0x2a, 0xc5, 0x44, 0xdf, 0xc2, 0x0c, 0x12, 
  0x39, 0x1d, 0x33, 0xa6, 0x3d, 0x23, 0x00, 0xa1, 0xfc, 0x02, 0xbc, 0xb7, 
  0x0d, 0xaa, 0xb9, 0x8e, 0xed, 0xd3, 0xd3, 0xc8, 0xf9, 0xef, 0xf1, 0xc9, 
  0x38, 0x9f, 0x16, 0xb5, 0xe3, 0x94, 0xc7, 0xde, 0x63, 0x35, 0x9e, 0x24, 
  0x02, 0x28, 0x94, 0xdb, 0xb1, 0xcc, 0x47, 0x95, 0x36, 0x9f, 0x50, 0x3b, 
  0x8e, 0xc5, 0x2b, 0xe1, 0xb3, 0x9e, 0xe8, 0x26, 0x8e, 0xfa, 0x4b, 0xdf, 
  0x31, 0xc8, 0xa2, 0x16, 0xd1, 0xe3, 0xdd, 0x57, 0x15, 0x9c, 0xa1, 0x55, 
  0xb3, 0xff, 0xee, 0xe0, 0xd1, 0x41, 0x5e, 0xce, 0x06, 0x24, 0xfb, 0x49, 
  0xf7, 0xdc, 0x0c, 0x51, 0x0c, 0xae, 0x84, 0xc7, 0xdd, 0x61, 0x34, 0x2b, 
  0xac, 0xd7, 0x0a, 0x12, 0x3a, 0xe5, 0x6b, 0x93, 0xad, 0xc2, 0xf1, 0xcd, 
  0xce, 0x14, 0x8a, 0x58, 0xb0, 0x9a, 0x35, 0xf9, 0xac, 0x39, 0x3a, 0xf1, 
  0x01, 0x07, 0xc5, 0x56, 0x3d, 0x2c, 0x14, 0xbc, 0xef, 0x5a, 0x1c, 0xf1, 
  0xf9, 0xc5, 0xcc, 0xb6, 0xef, 0xeb, 0xb5, 0xbd, 0xc9, 0x3a, 0x32, 0x24, 
  0xdf, 0xc3, 0xa8, 0x32, 0xb1, 0xeb, 0xdc, 0x3a, 0xf1, 0xf2, 0x5c, 0xde, 
  0xdd, 0x5f, 0xe8, 0xd2, 0xd9, 0x2d, 0x3d, 0x0c, 0x2b, 0x18, 0x66, 0xf7, 
  0x34, 0x65, 0xbc, 0x7f, 0xb2, 0x5c, 0x28, 0x08, 0x2a, 0xae, 0x23, 0xfa, 
  0xfc, 0xff, 0x63, 0xc9, 0x2d, 0x3b, 0xc3, 0x4e, 0xec, 0xc1, 0xc9, 0x56, 
  0xe6, 0xc7, 0x1f, 0x21, 0x3c, 0xc3, 0x3e, 0x3b, 0xe0, 0x3a, 0xd4, 0x17, 
  0x3c, 0x1b, 0xf3, 0xf7, 0xe8, 0xc5, 0x27, 0xf6, 0x17, 0x0c, 0xf4, 0x0b, 
  0xb3, 0xf4, 0x21, 0x48, 0xbe, 0xdf, 0xa3, 0xf9, 0xea, 0xf5, 0x56, 0xe8, 
  0xc1, 0xca, 0x49, 0xc2, 0x35, 0x04, 0xfe, 0xcf, 0xef, 0x0d, 0x38, 0xc8, 
  0x52, 0x0b, 0x2d, 0x3d, 0x18, 0xa1, 0xdd, 0x30, 0x05, 0x23, 0xa9, 0x07, 
  0xe4, 0xce, 0xbf, 0x1b, 0x9d, 0xef, 0xf6, 0x2c, 0x1e, 0x17, 0x22, 0x1b, 
  0xa7, 0x1b, 0xa1, 0x2c, 0xbe, 0x33, 0x08, 0xcb, 0x47, 0x14, 0x0e, 0xf6, 
  0x44, 0x49, 0xd1, 0x48, 0xe4, 0x67, 0xb5, 0x4d, 0x08, 0xbf, 0xdc, 0x67, 
  0xc7, 0xde, 0x1d, 0x3e, 0xc4, 0xb6, 0x28, 0xf4, 0x36, 0xe5, 0x45, 0xfa, 
  0x43, 0xad, 0x15, 0x41, 0xbf, 0x29, 0x11, 0xde, 0xd5, 0x06, 0x6a, 0x13, 
  0x69, 0x3c, 0xc3, 0xfc, 0xe5, 0x3d, 0xe5, 0xd1, 0xe7, 0x48, 0x6f, 0x60, 
  0x5e, 0xf6, 0x1a, 0xf1, 0xbe, 0xce, 0xbd, 0x4b, 0x13, 0xb6, 0x0b, 0x77, 
  0x2e, 0xf9, 0x01, 0x2c, 0x38, 0xbf, 0x5d, 0x0f, 0x64, 0xf5, 0xda, 0xe9, 
  0xfa, 0x7f, 0xba, 0xc3, 0x0e, 0xae, 0xaf, 0x6d, 0xcc, 0xed, 0x62, 0x2c, 
  0x3e, 0x6f, 0x3a, 0xbf, 0x23, 0xf7, 0x4c, 0xce, 0xe4, 0xf9, 0x15, 0x71, 
  0xe9, 0x67, 0xc2, 0x3d, 0x63, 0xcd, 0x05, 0xf4, 0x52, 0x20, 0xcd, 0xf1, 
  0xf8, 0x2d, 0x1f, 0x10, 0x03, 0x4c, 0xd5, 0xed, 0xcf, 0x3c, 0xa5, 0x1b, 
  0x2d, 0x5b, 0xda, 0xa4, 0xe0, 0x90, 0x0e, 0x42, 0x6e, 0x03, 0x0c, 0xae, 
  0x15, 0xc6, 0xb6, 0x07, 0x25, 0xde, 0xf5, 0x03, 0xe5, 0x54, 0xef, 0x0e, 
  0x1c, 0x0b, 0x45, 0xd7, 0xfc, 0xc3, 0xe3, 0x16, 0xc7, 0xe6, 0x19, 0x38, 
  0xf6, 0xab, 0x37, 0x12, 0x06, 0xf8, 0x6a, 0xcc, 0x0e, 0x11, 0x18, 0x46, 
  0x0e, 0xfc, 0x06, 0xd0, 0x45, 0xf7, 0xac, 0xb2, 0xfb, 0x59, 0x54, 0x21, 
  0x2f, 0xe8, 0x99, 0x22, 0xdc, 0x82, 0x15, 0xc3, 0x0a, 0x18, 0x17, 0x5b, 
  0x47, 0xeb, 0xbe, 0xde, 0x26, 0xa4, 0x45, 0x09, 0xb8, 0xb5, 0xf8, 0xf1, 
  0x15, 0x76, 0xda, 0x28, 0x02, 0xb7, 0x39, 0x08, 0xb9, 0xb6, 0x46, 0x1f, 
  0x34, 0xe3, 0xe6, 0x11, 0xee, 0xcf, 0x1f, 0x27, 0xa1, 0x09, 0x6c, 0xf3, 
  0xe4, 0xcd, 0x0e, 0x5c, 0x46, 0x95, 0xf9, 0x28, 0xa8, 0xfa, 0xd0, 0x04, 
  0xa0, 0x33, 0xe5, 0x5a, 0xfe, 0x51, 0xec, 0x9a, 0x4d, 0xa7, 0xdf, 0x5a, 
  0x4f, 0x6a, 0x09, 0x55, 0x0d, 0x28, 0x90, 0x97, 0x4d, 0x5b, 0x3d, 0x6c, 
  0x15, 0xe9, 0xbd, 0x1e, 0x4a, 0xca, 0x37, 0x22, 0xe3, 0xc7, 0xd9, 0x08, 
  0x46, 0x16, 0x33, 0x05, 0xe2, 0x15, 0xde, 0x15, 0x17, 0x59, 0xe9, 0x51, 
  0x6f, 0x5c, 0x1a, 0xa2, 0x49, 0x19, 0x94, 0x23, 0xe2, 0xdb, 0xe9, 0xb7, 
  0xc3, 0xec, 0xf9, 0x31, 0x40, 0xbe, 0xb6, 0x9a, 0xf9, 0x62, 0x90, 0x45, 
  0xb1, 0xda, 0xdf, 0xa8, 0x8b, 0x05, 0xf8, 0x07, 0x64, 0x47, 0xfa, 0xc1, 
  0xf0, 0x88, 0x05, 0xc9, 0x2d, 0x3e, 0xb2, 0x08, 0x17, 0xc6, 0xb9, 0x49, 
  0xf2, 0x21, 0xcf, 0xba, 0xda, 0x2f, 0x31, 0x59, 0xff, 0xa6, 0x2b, 0x33, 
  0x28, 0x11, 0xca, 0x41, 0x11, 0xa5, 0x3c, 0xe6, 0xe0, 0xef, 0x31, 0xcf, 
  0xf7, 0xbf, 0xeb, 0x36, 0x9b, 0xfe, 0xa3, 0x0a, 0xc9, 0x47, 0xdf, 0xeb, 
  0xb4, 0x21, 0xce, 0x0b, 0x38, 0xbf, 0xef, 0xa0, 0x65, 0x4a, 0x58, 0x18, 
  0x20, 0x07, 0xc1, 0x91, 0x98, 0xd6, 0x04, 0x8c, 0xb5, 0x5e, 0xb9, 0xe3, 
  0xa4, 0x9b, 0x8e, 0xc2, 0xb5, 0x50, 0x37, 0x0b, 0xf2, 0x5b, 0xa0, 0xf7, 
  0xa7, 0xc7, 0xdf, 0xa6, 0x9f, 0x67, 0xf1, 0xe7, 0x72, 0xdc, 0x94, 0x8a, 
  0xe4, 0x01, 0xd0, 0xc3, 0xa0, 0xac, 0x12, 0x81, 0xc2, 0xa2, 0xaa, 0xbe, 
  0x9e, 0x38, 0x48, 0x6f, 0xb0, 0xb0, 0x99, 0x37, 0xdc, 0x44, 0x25, 0x3f, 
  0x4e, 0xc5, 0xa7, 0x88, 0xca, 0x39, 0x01, 0x56, 0x96, 0x60, 0x44, 0x26, 
  0xe6, 0x93, 0xd6, 0xca, 0x0b, 0x69, 0x18, 0x08, 0x4d, 0xf2, 0xf9, 0xdc, 
  0xe6, 0xcb, 0xf6, 0xfe, 0xb7, 0xe9, 0x3b, 0x35, 0xc4, 0xec, 0xc2, 0x90, 
  0x10, 0xed, 0x16, 0x53, 0x99, 0xb1, 0xa4, 0x38, 0xf5, 0xe6, 0xaa, 0x72, 
  0x15, 0xbd, 0x54, 0xca, 0x44, 0x1d, 0x65, 0xbc, 0xa4, 0x5b, 0x41, 0x0f, 
  0xe1, 0x7f, 0x3c, 0x11, 0xcd, 0x29, 0x47, 0x50, 0x45, 0x32, 0xa3, 0xc9, 
  0x16, 0xc4, 0xd8, 0x62, 0x13, 0x6f, 0xb0, 0xdc, 0x0a, 0xc9, 0x0f, 0xec, 
  0xe5, 0xfb, 0x99, 0x1b, 0x32, 0xd9, 0xcb, 0x45, 0x39, 0x27, 0x55, 0x3c, 
  0x36, 0x29, 0xb9, 0xee, 0x62, 0x53, 0x9a, 0x41, 0x54, 0xef, 0x59, 0x4b, 
  0x57, 0x12, 0x49, 0xfb, 0x18, 0xa7, 0xa0, 0xe7, 0x3b, 0xa1, 0x23, 0x37, 
  0xb4, 0x1c, 0xb9, 0xee, 0xe1, 0x12, 0x95, 0xe1, 0x98, 0xfa, 0x31, 0xe5, 
  0xc7, 0x09, 0xbf, 0x76, 0x45, 0x43, 0x2f, 0x52, 0x01, 0xd4, 0x15, 0x5f, 
  0x2f, 0xef, 0x61, 0x2e, 0x17, 0x6e, 0x32, 0xd6, 0xe9, 0x78, 0xb5, 0xba, 
  0xe9, 0x3f, 0x25, 0x38, 0x6d, 0x13, 0x12, 0x4a, 0x65, 0x37, 0xe2, 0xff, 
  0x05, 0x9e, 0x37, 0x3a, 0xd9, 0x3f, 0x12, 0xe9, 0xd4, 0x25, 0xf9, 0x61, 
  0x10, 0x1b, 0x2c, 0xde, 0x30, 0x9c, 0x1e, 0x0d, 0xd7, 0xb5, 0x9d, 0x0d, 
  0xb1, 0x46, 0xd5, 0xf0, 0xe7, 0x1b, 0x63, 0xe4, 0x1a, 0xe4, 0xd8, 0x0f, 
  0xec, 0x5b, 0x53, 0xdf, 0x18, 0x14, 0x48, 0xdf, 0xc1, 0x01, 0x05, 0xeb, 
  0x54, 0x03, 0x18, 0xf8, 0x11, 0x30, 0xf5, 0x35, 0x60, 0x51, 0x3d, 0xf9, 
  0x16, 0x4b, 0xb8, 0x0b, 0x0d, 0x2e, 0x05, 0x14, 0xa8, 0xf9, 0xe9, 0x19, 
  0xf7, 0x3c, 0x05, 0xe7, 0xe9, 0x25, 0x04, 0xdb, 0x46, 0x3e, 0xb0, 0x79, 
  0x32, 0x07, 0xf7, 0xdd, 0x2c, 0x13, 0xb9, 0x0d, 0xc7, 0xe6, 0xd4, 0xd1, 
  0x4c, 0xac, 0x3e, 0xbf, 0x1d, 0x02, 0xd3, 0x2a, 0x19, 0x68, 0x4b, 0xec, 
  0xda, 0x58, 0x07, 0x60, 0x55, 0x08, 0xfa, 0xc2, 0xed, 0xd8, 0x15, 0x9f, 
  0xa4, 0x90, 0x62, 0xbc, 0x55, 0x77, 0xeb, 0xff, 0xf8, 0x2a, 0xee, 0xd1, 
  0x44, 0x36, 0x4f, 0x46, 0x4f, 0x07, 0xc2, 0xec, 0xd6, 0x29, 0xc9, 0x05, 
  0xdf, 0x5b, 0x1d, 0x25, 0x4c, 0x45, 0x32, 0xa6, 0xdb, 0xdc, 0xe4, 0xf6, 
  0x3a, 0x34, 0x06, 0xdd, 0xff, 0xd1, 0x17, 0x27, 0xbb, 0xff, 0xba, 0x36, 
  0x20, 0x0e, 0xd3, 0xeb, 0x34, 0x2b, 0x01, 0x48, 0x47, 0x2a, 0xba, 0x1b, 
  0x5f, 0xde, 0xe3, 0xa8, 0xa8, 0xc1, 0x55, 0x01, 0x3c, 0x3d, 0xe5, 0x52, 
  0x1c, 0xdf, 0xe7, 0x7f, 0xdb, 0x32, 0x29, 0x2e, 0x65, 0x4d, 0x6d, 0x1c, 
  0x4a, 0x22, 0xeb, 0x45, 0x2d, 0x27, 0x52, 0xbd, 0x45, 0x07, 0x0c, 0x5a, 
  0x22, 0x09, 0xc4, 0xfb, 0x24, 0x4a, 0x24, 0xda, 0xe2, 0xfa, 0x52, 0xb4, 
  0x24, 0xc7, 0xef, 0xbf, 0xc0, 0x5a, 0x30, 0x2f, 0x15, 0x3d, 0xf3, 0x3b, 
  0x0d, 0x43, 0x21, 0x55, 0xf3, 0xce, 0xd4, 0x31, 0x44, 0xc6, 0xde, 0x00, 
  0x5f, 0xe4, 0xe4, 0x29, 0xd7, 0xc3, 0x33, 0xfb, 0x5b, 0x66, 0x41, 0xe5, 
  0x2d, 0xab, 0x10, 0xb5, 0x39, 0xe3, 0xa3, 0x2a, 0x58, 0x0e, 0xb0, 0x2f, 
  0xc3, 0xb2, 0xeb, 0x67, 0x06, 0x9d, 0x42, 0x24, 0x60, 0x60, 0xb6, 0x49, 
  0x81, 0xff, 0xfa, 0xd0, 0xe0, 0xf8, 0xb3, 0xb6, 0x2b, 0xe0, 0x58, 0x71, 
  0x4f, 0xfa, 0x54, 0xa9, 0xc4, 0xa2, 0x46, 0xc0, 0xfc, 0x05, 0x2c, 0x07, 
  0xe4, 0xea, 0x3d, 0xce, 0x5b, 0xe6, 0x11, 0xa9, 0x0b, 0xf3, 0x89, 0xc4, 
  0x24, 0x10, 0xfe, 0xcb, 0x5a, 0xb6, 0xc3, 0x4f, 0xc8, 0x35, 0xc1, 0x58, 
  0x13, 0x9d, 0xc3, 0xdb, 0x0b, 0x52, 0x77, 0xf4, 0xbc, 0x04, 0xeb, 0x22, 
  0xef, 0x2b, 0xfa, 0xff, 0x22, 0xcc, 0x57, 0x3a, 0xc3, 0xf0, 0xff, 0xe5, 
  0x15, 0xcb, 0x93, 0x32, 0x29, 0x08, 0x02, 0xa2, 0xe6, 0xf6, 0xcb, 0x22, 
  0x4c, 0x62, 0x6e, 0xe8, 0x22, 0xfd, 0xd7, 0xbf, 0xfa, 0x1e, 0x66, 0xfb, 
  0xdd, 0x07, 0x96, 0x08, 0xf3, 0xdf, 0x2d, 0x4d, 0xb0, 0xcf, 0x9e, 0x25, 
  0x09, 0xf7, 0x35, 0x20, 0x23, 0x38, 0xd0, 0x1a, 0xe6, 0xc7, 0xfa, 0xc7, 
  0x47, 0x0d, 0x48, 0xab, 0xf3, 0x42, 0xb2, 0x05, 0xfa, 0x5d, 0xd7, 0x22, 
  0x2d, 0xd1, 0x40, 0xec, 0x4c, 0xbb, 0xde, 0x35, 0x12, 0x46, 0xf7, 0xf3, 
  0xea, 0xfa, 0x0f, 0xd5, 0xbd, 0x07, 0xf0, 0x97, 0xb6, 0xcb, 0x7a, 0x5d, 
  0xca, 0x20, 0xc9, 0x07, 0x41, 0xf0, 0x1e, 0xb8, 0x24, 0xb4, 0x30, 0x17, 
  0x24, 0xda, 0xda, 0x14, 0xae, 0x29, 0x04, 0x2e, 0xc5, 0x3c, 0x15, 0x5a, 
  0x3a, 0x87, 0x4c, 0x45, 0x26, 0xbe, 0xb3, 0xac, 0xb1, 0x4e, 0x2d, 0x2c, 
  0x4b, 0x59, 0x4e, 0xb8, 0xb5, 0xcc, 0xd7, 0xd2, 0x15, 0x49, 0xf5, 0x63, 
  0x14, 0x4c, 0x1a, 0x05, 0x0a, 0xf7, 0x15, 0x5a, 0xac, 0x25, 0x20, 0x2b, 
  0x08, 0x4b, 0xc3, 0x74, 0xf5, 0xcd, 0x0f, 0x0d, 0xc2, 0x2a, 0x22, 0x9b, 
  0x5a, 0x5c, 0x4c, 0xcc, 0x4d, 0xd3, 0x00, 0xfc, 0xf9, 0x69, 0x02, 0xdd, 
  0x4e, 0xd8, 0xda, 0x19, 0xf4, 0xed, 0xa8, 0x49, 0x25, 0x44, 0xcc, 0xdf, 
  0x42, 0xb7, 0xcb, 0xb7, 0xe4, 0xdb, 0x4c, 0xd9, 0x3b, 0xd3, 0x4e, 0x32, 
  0x4d, 0xb5, 0xdf, 0x3c, 0xf6, 0x4d, 0xfa, 0xf7, 0x12, 0x2c, 0x58, 0xa3, 
  0x59, 0xf2, 0xf6, 0xb4, 0xd2, 0xfd, 0xef, 0x42, 0xf6, 0xd5, 0xaa, 0x4d, 
  0xae, 0xaa, 0x7f, 0xdb, 0xf2, 0x0c, 0xd1, 0xec, 0xcd, 0xdb, 0x4f, 0xc9, 
  0x4b, 0x4d, 0xb7, 0x72, 0xd5, 0x2f, 0x16, 0x60, 0x5e, 0x6c, 0x0c, 0xbd, 
  0x0c, 0xe2, 0x16, 0xa0, 0xc3, 0x10, 0xa5, 0x4a, 0x11, 0x0d, 0x2d, 0x1f, 
  0xfd, 0xc5, 0x4d, 0x4f, 0x23, 0xd7, 0x3a, 0xc9, 0x25, 0x2b, 0x51, 0x68, 
  0xd9, 0xd4, 0x18, 0x19, 0xf9, 0xdc, 0x4f, 0xd0, 0xb1, 0xfa, 0x17, 0x33, 
  0x48, 0xcd, 0x1b, 0xd7, 0x9d, 0x44, 0xdd, 0x51, 0x50, 0x5f, 0x42, 0x28, 
  0xfb, 0x2a, 0x30, 0xb3, 0x30, 0x20, 0xd0, 0x05, 0x7f, 0x5d, 0xe6, 0x59, 
  0xa9, 0x0d, 0xad, 0x08, 0xf0, 0x5c, 0x03, 0xcd, 0x9f, 0x51, 0x15, 0x42, 
  0xbd, 0x09, 0xeb, 0xdb, 0xed, 0x3f, 0x1c, 0x28, 0x60, 0x1a, 0xe7, 0xc9, 
  0x09, 0x39, 0xc4, 0xa2, 0xe9, 0x10, 0x76, 0x24, 0xf3, 0x18, 0xe1, 0xe8, 
  0x48, 0x31, 0x2a, 0x6a, 0xee, 0xb8, 0xca, 0x45, 0xa0, 0xfd, 0x31, 0xfb, 
  0x20, 0x20, 0xce, 0x2f, 0x5c, 0xd3, 0x36, 0x49, 0xde, 0x2c, 0xdf, 0x6e, 
  0x07, 0xe9, 0x05, 0x1c, 0x0a, 0x12, 0x2b, 0x69, 0x46, 0xf1, 0xa2, 0xb8, 
  0x0b, 0x1a, 0xf8, 0x13, 0x58, 0x67, 0x67, 0xec, 0x21, 0x2d, 0x1a, 0x15, 
  0xdc, 0xe5, 0xbb, 0x68, 0xf1, 0xe3, 0xbd, 0x02, 0x1b, 0x46, 0x1b, 0x9f, 
  0xf2, 0xcd, 0x40, 0xfa, 0x41, 0xdd, 0x49, 0x14, 0x42, 0xf2, 0xf6, 0x3a, 
  0xf6, 0xbc, 0xce, 0x1f, 0x51, 0x44, 0x0f, 0xcc, 0xe0, 0x9e, 0xc8, 0xa3, 
  0x21, 0x25, 0xd9, 0x32, 0x14, 0x30, 0x66, 0x31, 0x41, 0xf5, 0x71, 0xef, 
  0x0a, 0x06, 0xfb, 0xbf, 0xfc, 0xd7, 0xcc, 0xc9, 0xc4, 0x00, 0x37, 0xba, 
  0xaa, 0xb9, 0x1d, 0x26, 0x5c, 0x7f, 0x0d, 0x28, 0xfc, 0xb1, 0xb3, 0x60, 
  0x69, 0x24, 0xeb, 0xcb, 0x35, 0x3f, 0xf5, 0xbd, 0x35, 0x2f, 0x48, 0x2b, 
  0xde, 0xca, 0x5a, 0x1c, 0xdb, 0x6c, 0x32, 0xe8, 0x5a, 0x14, 0xfa, 0x1e, 
  0x06, 0x3e, 0x3e, 0xd3, 0x6a, 0x42, 0xc8, 0xfa, 0xde, 0xc8, 0x61, 0x55, 
  0xbc, 0xa6, 0xd5, 0x48, 0x25, 0x34, 0x63, 0xf6, 0x3f, 0x13, 0x9d, 0xee, 
  0xd7, 0x14, 0x20, 0x25, 0x43, 0x3b, 0x12, 0xc9, 0xc7, 0xe1, 0x08, 0xbe, 
  0x65, 0x3c, 0x12, 0x0e, 0xc8, 0xa5, 0x73, 0x41, 0x04, 0x29, 0x64, 0xc2, 
  0xe0, 0xf4, 0x4c, 0x1f, 0x00, 0xaa, 0xc9, 0xbe, 0xc7, 0xf2, 0x2f, 0xee, 
  0x1c, 0xec, 0xdb, 0xb1, 0x51, 0xd8, 0x13, 0x0b, 0x5a, 0x1e, 0xae, 0x11, 
  0x55, 0x3a, 0x77, 0x08, 0xe1, 0x1c, 0xe4, 0x3c, 0xce, 0x31, 0xd0, 0xc5, 
  0xe8, 0xfb, 0xec, 0xc0, 0x0c, 0x07, 0x68, 0xec, 0x16, 0xbd, 0x0c, 0x11, 
  0x29, 0xb3, 0x40, 0x55, 0xad, 0x2d, 0xd1, 0x28, 0x4b, 0x4a, 0x02, 0xc8, 
  0xbf, 0xcc, 0xd8, 0xf0, 0x1d, 0x39, 0x12, 0xc4, 0x47, 0x23, 0x76, 0x9d, 
  0xbf, 0xb9, 0x14, 0xdf, 0xef, 0x09, 0x23, 0x8b, 0x3d, 0x37, 0x0d, 0x59, 
  0x20, 0xea, 0x0c, 0x18, 0xe0, 0x22, 0x23, 0xca, 0xdc, 0xd2, 0x35, 0x57, 
  0xd6, 0x57, 0x02, 0x60, 0x6b, 0x35, 0x56, 0xd0, 0xeb, 0xe4, 0xf1, 0x22, 
  0x12, 0x7f, 0xd0, 0x51, 0xea, 0xbb, 0x0b, 0x07, 0xfa, 0x31, 0x70, 0xf0, 
  0x13, 0xe0, 0x45, 0xc0, 0xe9, 0x48, 0x3f, 0x2c, 0x69, 0x36, 0x21, 0xeb, 
  0x28, 0x3a, 0xf0, 0x4a, 0x1b, 0xd2, 0x43, 0xc0, 0xf5, 0x20, 0x5c, 0x3a, 
  0xd5, 0x19, 0x3a, 0x59, 0xec, 0x31, 0xeb, 0x60, 0x08, 0xdc, 0x35, 0x57, 
  0x5d, 0xfc, 0x13, 0x25, 0xec, 0xef, 0xdd, 0xdb, 0x2c, 0xe3, 0x37, 0x0f, 
  0x24, 0xc4, 0x3b, 0x2b, 0xdd, 0xe3, 0x0f, 0x28, 0x48, 0x21, 0x4c, 0x61, 
  0x0e, 0x2b, 0x0f, 0x12, 0xd3, 0x3e, 0xed, 0x03, 0x1c, 0x33, 0x42, 0xbd, 
  0xf9, 0xc5, 0x0c, 0x14, 0x24, 0x1e, 0x16, 0xce, 0x1e, 0x5a, 0xe3, 0xe8, 
  0xe3, 0x12, 0xf2, 0x02, 0x57, 0x33, 0x38, 0x25, 0xe3, 0x0c, 0x01, 0x24, 
  0x0b, 0xef, 0xc8, 0x36, 0xeb, 0xee, 0x24, 0xf6, 0x1c, 0xbb, 0xfb, 0xa8, 
  0xad, 0xc0, 0xc1, 0x29, 0x27, 0x0b, 0xc2, 0x21, 0xfd, 0x00, 0xe7, 0x21, 
  0x74, 0x2d, 0xe3, 0xf8, 0x17, 0xef, 0x26, 0xd1, 0x45, 0x04, 0x16, 0xd5, 
  0xe0, 0xc1, 0xbf, 0xc8, 0xdb, 0xd2, 0xd6, 0x1a, 0xd0, 0xeb, 0x26, 0x3b, 
  0xe3, 0x20, 0xdd, 0x0d, 0x2f, 0xd6, 0xe6, 0x58, 0x05, 0xd8, 0x27, 0xcf, 
  0x09, 0xd6, 0x16, 0xf9, 0xc5, 0xe1, 0x30, 0x4f, 0x56, 0x25, 0xd7, 0x42, 
  0x59, 0x77, 0xf2, 0xeb, 0x02, 0xfb, 0x3d, 0x57, 0x0d, 0x22, 0xff, 0x14, 
  0xd5, 0x0e, 0xc7, 0x42, 0x3f, 0xf2, 0xd1, 0xe2, 0x39, 0x17, 0x00, 0xea, 
  0x21, 0xf3, 0x02, 0xfc, 0xec, 0xf1, 0x49, 0x7f, 0x3e, 0x0a, 0x10, 0x31, 
  0x60, 0x19, 0xc1, 0x41, 0x6b, 0x59, 0x17, 0x13, 0xfa, 0xe9, 0x11, 0xf2, 
  0x11, 0xf1, 0xfa, 0x11, 0xdd, 0x4b, 0xf6, 0x6d, 0x17, 0x39, 0xce, 0x04, 
  0x14, 0xe0, 0xfb, 0x2f, 0x17, 0x22, 0x04, 0x2f, 0x12, 0xca, 0x58, 0x1c, 
  0xb4, 0x00, 0xce, 0xe7, 0x40, 0xb9, 0x07, 0xa9, 0xd9, 0xb8, 0x18, 0x46, 
  0xed, 0x28, 0x5b, 0x2f, 0xd0, 0x0b, 0xfb, 0xc3, 0xd2, 0xbe, 0xf7, 0xd0, 
  0x42, 0xf0, 0x2e, 0xeb, 0xd4, 0x5f, 0x5d, 0xcf, 0xe8, 0xcd, 0xd0, 0x13, 
  0x2c, 0xf7, 0x0b, 0x24, 0xe2, 0xe5, 0xfb, 0x3c, 0x1e, 0xe4, 0xf6, 0x05, 
  0x1a, 0xcf, 0x07, 0x4c, 0xdc, 0xed, 0x2f, 0xd1, 0x44, 0xfa, 0x2e, 0x06, 
  0xea, 0x39, 0x18, 0xd7, 0xce, 0x4a, 0x3b, 0x22, 0xf3, 0xd1, 0x1f, 0x2c, 
  0xec, 0x36, 0xe8, 0x0b, 0x2b, 0x29, 0xd7, 0xee, 0xd9, 0x24, 0x0c, 0x0e, 
  0xdd, 0xf1, 0x1a, 0x29, 0xd9, 0xe3, 0xd5, 0xa6, 0x26, 0x40, 0xf7, 0x2f, 
  0xf2, 0xf3, 0x39, 0xd7, 0x1d, 0x17, 0x2a, 0x0e, 0x51, 0x45, 0xb9, 0x2d, 
  0x2f, 0x4f, 0xb5, 0xcc, 0x53, 0xd2, 0xdc, 0x49, 0xc3, 0x22, 0xda, 0xca, 
  0xdd, 0xcc, 0xee, 0x16, 0xef, 0xeb, 0x18, 0xf2, 0x19, 0x0b, 0x4c, 0x0e, 
  0xcf, 0x41, 0x5b, 0xc8, 0x2b, 0xf2, 0x31, 0x38, 0xb9, 0xc3, 0xdf, 0xa1, 
  0x9b, 0x27, 0x4a, 0x2f, 0x0f, 0x66, 0xeb, 0xd2, 0x1c, 0x13, 0x0c, 0xec, 
  0xcc, 0x56, 0xe2, 0x91, 0x32, 0xb8, 0x9d, 0x47, 0x27, 0x14, 0xdb, 0x48, 
  0xcc, 0x1c, 0xe3, 0xfa, 0xc9, 0x48, 0x5f, 0x0a, 0x34, 0x9c, 0x41, 0xbe, 
  0xb9, 0x73, 0xd7, 0xda, 0xca, 0xc9, 0xab, 0xd2, 0x37, 0xbe, 0x01, 0x2a, 
  0xb9, 0x5d, 0x03, 0x1d, 0x95, 0x0a, 0xc0, 0x4d, 0x0f, 0x37, 0x3d, 0x05, 
  0xe8, 0xa4, 0xf1, 0xcf, 0x63, 0x39, 0x2e, 0xfe, 0x12, 0xf1, 0x10, 0xde, 
  0xfd, 0xb7, 0xb6, 0x4a, 0xca, 0x81, 0x08, 0xca, 0x36, 0x2f, 0x89, 0x02, 
  0x1e, 0x52, 0x3d, 0xfd, 0x23, 0xfd, 0xd9, 0xb5, 0xf3, 0x3d, 0xa6, 0xf4, 
  0xf7, 0xea, 0x19, 0xfe, 0x5b, 0x24, 0x12, 0x55, 0xab, 0x60, 0xf5, 0x30, 
  0x5b, 0x12, 0xe2, 0x0f, 0x07, 0x18, 0x26, 0x57, 0x18, 0x4e, 0x89, 0xed, 
  0xe8, 0xfd, 0x2a, 0xc6, 0xd5, 0x55, 0xe1, 0x40, 0xaf, 0x4b, 0x4e, 0x5a, 
  0x28, 0x37, 0xab, 0x4e, 0x44, 0x23, 0x4f, 0xea, 0xa1, 0xed, 0xb5, 0xdd, 
  0x66, 0x04, 0x31, 0xa5, 0x16, 0xde, 0x0d, 0xae, 0x55, 0x2c, 0xfb, 0x6e, 
  0xe8, 0xf1, 0x66, 0x44, 0x0b, 0x34, 0x27, 0xc0, 0x28, 0x18, 0xaf, 0x6b, 
  0x3d, 0x46, 0x38, 0x53, 0x28, 0xf6, 0xea, 0x5b, 0x32, 0x10, 0xdf, 0xc5, 
  0x47, 0x26, 0x05, 0x09, 0x1b, 0x39, 0x18, 0x54, 0xc3, 0x01, 0x36, 0xe3, 
  0x19, 0x41, 0xdc, 0xc6, 0x40, 0x2b, 0x28, 0x7f, 0xcf, 0xff, 0xe0, 0x35, 
  0x4a, 0xc8, 0xaf, 0xb4, 0x47, 0x4d, 0x23, 0x52, 0x24, 0x01, 0x6a, 0xf1, 
  0x0a, 0x13, 0x49, 0x2c, 0xed, 0xaf, 0x2e, 0x1e, 0x0c, 0xc7, 0xd9, 0x4b, 
  0xc3, 0xec, 0x04, 0xea, 0x6e, 0x22, 0xbc, 0x19, 0x0f, 0x2f, 0x72, 0x28, 
  0x9b, 0xb8, 0x3f, 0xc9, 0x4e, 0x1d, 0x55, 0xd8, 0x03, 0xf4, 0xdf, 0x21, 
  0xf0, 0xed, 0x44, 0x4e, 0x12, 0xe1, 0xeb, 0xc5, 0x57, 0x4a, 0x27, 0xd8, 
  0xeb, 0x18, 0xfd, 0x30, 0xbe, 0x03, 0xee, 0x45, 0xcd, 0xc7, 0xe3, 0xb7, 
  0x59, 0x19, 0x01, 0x3b, 0x38, 0x41, 0x1a, 0x4f, 0x00, 0x19, 0x51, 0x2b, 
  0x2d, 0xb4, 0xc4, 0x24, 0xb0, 0xf3, 0x31, 0xb1, 0xe3, 0xd5, 0x37, 0xd4, 
  0xf8, 0xeb, 0x19, 0x2d, 0x30, 0xfa, 0x29, 0x32, 0xd9, 0xed, 0xcf, 0xd2, 
  0xce, 0x53, 0xc9, 0xa8, 0xd0, 0x20, 0xc0, 0xe1, 0x33, 0xe7, 0xe3, 0xee, 
  0xc8, 0xf3, 0xbd, 0xac, 0xb5, 0x99, 0xd0, 0xe5, 0xdd, 0x0d, 0x7c, 0x03, 
  0x21, 0x4d, 0x23, 0x2d, 0x3a, 0x18, 0xf4, 0x52, 0xc6, 0xbf, 0xef, 0xfb, 
  0xd4, 0x54, 0xc1, 0xeb, 0xa1, 0x13, 0x5b, 0xc6, 0xb7, 0x1a, 0x96, 0xea, 
  0x5a, 0x75, 0x08, 0xb5, 0x7f, 0xb9, 0xa5, 0x37, 0xcf, 0xc4, 0x89, 0x02, 
  0xaa, 0xc6, 0x0f, 0x62, 0xa8, 0xa6, 0xd9, 0x37, 0x2a, 0x61, 0x4b, 0x74, 
  0xc7, 0xab, 0x2a, 0x09, 0x2d, 0xeb, 0xbd, 0x46, 0xce, 0x60, 0x55, 0x6d, 
  0x66, 0x0e, 0x6c, 0xc0, 0x50, 0xad, 0x41, 0xea, 0x5e, 0x74, 0x27, 0xfc, 
  0xed, 0xf8, 0xba, 0xc1, 0x01, 0x4d, 0xea, 0xfd, 0xd5, 0x2e, 0x04, 0x27, 
  0xd4, 0xda, 0xe7, 0x1b, 0xef, 0xf7, 0xea, 0x24, 0x22, 0x32, 0xc6, 0x1b, 
  0xc0, 0xab, 0x02, 0xaa, 0x3b, 0x62, 0x40, 0x4d, 0xa5, 0xae, 0x2c, 0x22, 
  0x1b, 0x0e, 0x1d, 0xc0, 0xc3, 0x3a, 0x3d, 0xf1, 0xc1, 0x27, 0x05, 0xf7, 
  0xc9, 0xf2, 0x66, 0x55, 0xe8, 0x5a, 0x40, 0xf2, 0x42, 0x95, 0x0f, 0xef, 
  0x2e, 0x16, 0xa0, 0x3f, 0x52, 0xd9, 0xf6, 0x4e, 0xdd, 0x16, 0xd6, 0x3d, 
  0x42, 0x10, 0xe0, 0xb2, 0xce, 0xc5, 0x3c, 0x4d, 0x83, 0xc4, 0xd4, 0xf7, 
  0x29, 0x62, 0x44, 0x15, 0x76, 0xb5, 0xda, 0xfa, 0x03, 0xec, 0xf8, 0xdf, 
  0x76, 0xfe, 0x0b, 0x04, 0x29, 0x23, 0xcf, 0xd1, 0x6c, 0x30, 0x1c, 0x98, 
  0xb3, 0xd3, 0xd5, 0x15, 0x12, 0xfc, 0x4b, 0xa6, 0x38, 0xc3, 0x0e, 0x94, 
  0x86, 0xbf, 0x36, 0xf6, 0x1c, 0x5e, 0xf7, 0xa8, 0x00, 0x78, 0x3d, 0x62, 
  0x37, 0xc2, 0x27, 0xab, 0x39, 0x82, 0x90, 0x23, 0x70, 0x18, 0xde, 0x78, 
  0x2d, 0x3c, 0xae, 0x48, 0x15, 0x5e, 0x71, 0xc8, 0xb1, 0xe8, 0xf0, 0x18, 
  0x0f, 0x4d, 0x27, 0xfd, 0xec, 0x4d, 0xc3, 0x64, 0x5c, 0xd7, 0x23, 0xe9, 
  0x31, 0x6d, 0xcc, 0xc2, 0x41, 0x5b, 0xe4, 0x67, 0x3e, 0xde, 0x15, 0x07, 
  0x1e, 0x39, 0x26, 0xc2, 0xb5, 0xa0, 0xd0, 0xc4, 0x71, 0xb5, 0x21, 0x4f, 
  0xbf, 0xc1, 0x26, 0x3b, 0xb6, 0xf2, 0xc3, 0xda, 0xd0, 0xb2, 0xb0, 0x1b, 
  0x40, 0x6b, 0x9d, 0x20, 0x51, 0x36, 0xbf, 0x50, 0xe0, 0xaa, 0x68, 0x9c, 
  0xc9, 0xe7, 0xa2, 0x8a, 0x07, 0x95, 0x45, 0x4f, 0x89, 0x6d, 0xf8, 0xcd, 
  0x0e, 0x17, 0x65, 0x30, 0x63, 0x1f, 0xe5, 0x21, 0xb1, 0x36, 0xea, 0x14, 
  0xaa, 0x27, 0xcc, 0xa7, 0x0d, 0x38, 0x2e, 0x20, 0x5a, 0x2e, 0xd5, 0xe6, 
  0xef, 0x6e, 0x70, 0x33, 0xdc, 0x59, 0x4b, 0x6d, 0xa2, 0xd0, 0x2a, 0x43, 
  0x9a, 0x00, 0xeb, 0x70, 0x94, 0xd4, 0x9b, 0x9e, 0xac, 0x9b, 0x31, 0x3d, 
  0x22, 0xd8, 0x65, 0x51, 0x47, 0xf4, 0x4c, 0x4e, 0x2f, 0xdd, 0x15, 0x13, 
  0xde, 0x22, 0x10, 0xc6, 0x16, 0x6b, 0xda, 0x17, 0xbf, 0xc9, 0xae, 0x7f, 
  0x52, 0x14, 0xb3, 0xd8, 0xca, 0xef, 0x0d, 0x81, 0x82, 0xab, 0xca, 0x5b, 
  0x1c, 0x24, 0xf5, 0x61, 0xeb, 0x4d, 0x35, 0x12, 0x24, 0x1d, 0xd7, 0xe0, 
  0x62, 0x42, 0xe7, 0x2b, 0xed, 0x81, 0xf1, 0x25, 0xeb, 0x10, 0xbb, 0xc6, 
  0x3c, 0x69, 0x35, 0xc6, 0x90, 0x1b, 0x16, 0x48, 0x26, 0xa1, 0xfa, 0x0e, 
  0xb0, 0xf8, 0x32, 0xe9, 0xc8, 0xb2, 0xc3, 0xdb, 0xae, 0xec, 0x9a, 0xfb, 
  0xe5, 0xb8, 0xee, 0xfb, 0x09, 0xfe, 0x54, 0xc4, 0x14, 0x48, 0x2d, 0x4f, 
  0xde, 0xb8, 0x19, 0x4b, 0xff, 0x0a, 0xca, 0x46, 0x07, 0xcc, 0xe3, 0xee, 
  0xf3, 0x28, 0x02, 0xc4, 0xbe, 0xc2, 0x45, 0x19, 0xd8, 0x21, 0x20, 0x1d, 
  0x27, 0x01, 0x4e, 0xdc, 0x2f, 0xec, 0x92, 0x43, 0xfb, 0xac, 0x41, 0xa1, 
  0xd8, 0xf4, 0x26, 0xed, 0x46, 0xf2, 0xf2, 0xb1, 0x42, 0x65, 0x2f, 0x32, 
  0xaa, 0x2f, 0x2d, 0x11, 0xd5, 0x6e, 0x98, 0x18, 0x18, 0xd7, 0x52, 0x91, 
  0xfb, 0x45, 0xb4, 0x5f, 0xc4, 0x63, 0x25, 0x4a, 0xf8, 0x38, 0xf4, 0x4e, 
  0x4c, 0xed, 0xe2, 0xd1, 0x1a, 0x3d, 0x2b, 0xda, 0x08, 0x51, 0x64, 0xf3, 
  0xbc, 0x1e, 0x99, 0x3a, 0x42, 0x55, 0xba, 0x0e, 0x44, 0xfc, 0xdc, 0xd8, 
  0x53, 0x19, 0x0b, 0xbf, 0xc3, 0xad, 0x19, 0x2d, 0x66, 0xd0, 0xc6, 0x53, 
  0x3e, 0x35, 0x05, 0xbb, 0x4e, 0x09, 0x3a, 0x56, 0xb5, 0xd8, 0xf9, 0x3f, 
  0x32, 0xe7, 0xbf, 0xb8, 0xbf, 0xcb, 0x39, 0x70, 0xe8, 0xd5, 0x0c, 0x5b, 
  0x36, 0x58, 0x1a, 0x66, 0x2b, 0xaa, 0xec, 0x55, 0x3f, 0x5c, 0x97, 0xc5, 
  0xea, 0x1c, 0xba, 0x40, 0x04, 0xce, 0x3d, 0x3b, 0x9f, 0xfc, 0xfa, 0xb6, 
  0x2d, 0xdf, 0xe7, 0xa3, 0x6a, 0x15, 0x37, 0x54, 0x01, 0x3b, 0x92, 0xff, 
  0xad, 0xdf, 0x22, 0xba, 0xf1, 0x1e, 0x02, 0x3c, 0x29, 0xa5, 0x20, 0x31, 
  0xc9, 0xf2, 0x4f, 0xe0, 0x27, 0x2b, 0x6b, 0xe8, 0xc7, 0xea, 0xdb, 0xf3, 
  0xdd, 0x51, 0x4f, 0x6e, 0xf0, 0x58, 0x74, 0x93, 0x51, 0xf4, 0xf9, 0xc8, 
  0x62, 0x68, 0x25, 0x30, 0x04, 0x38, 0xce, 0x7a, 0x45, 0xc7, 0x34, 0xc1, 
  0x71, 0x12, 0x1d, 0x40, 0xd6, 0x54, 0x4c, 0x84, 0xe8, 0xcd, 0xf6, 0x1f, 
  0x33, 0x96, 0xb2, 0x37, 0x5a, 0xf7, 0x4f, 0x0d, 0x2e, 0xbb, 0x3c, 0xbc, 
  0xf4, 0x39, 0xe4, 0x42, 0x20, 0x6b, 0x12, 0xb5, 0xd4, 0x98, 0xd6, 0xa6, 
  0xc2, 0x35, 0x20, 0x33, 0x16, 0xc3, 0xc9, 0x24, 0xce, 0xfb, 0x7f, 0xca, 
  0x2c, 0xc9, 0x57, 0x9c, 0xc3, 0x71, 0x58, 0xbf, 0x5a, 0x37, 0xe3, 0x30, 
  0x33, 0xb0, 0x73, 0xa6, 0xdc, 0xbb, 0x35, 0x1b, 0x3c, 0xe5, 0xbf, 0x3d, 
  0x20, 0xe6, 0x28, 0xfc, 0xf4, 0x08, 0xfb, 0xa0, 0x2f, 0x06, 0x3a, 0x1f, 
  0x61, 0x25, 0x95, 0x24, 0x60, 0x62, 0xf4, 0x1f, 0xb8, 0x00, 0x07, 0x49, 
  0xf9, 0xd5, 0xf3, 0x9d, 0x4b, 0xfc, 0x2e, 0x2e, 0x55, 0xa2, 0x22, 0x27, 
  0xfe, 0x0e, 0x26, 0x22, 0xc7, 0xc5, 0x22, 0x4a, 0x3c, 0xf3, 0x20, 0x39, 
  0x1e, 0x29, 0x46, 0x1b, 0x15, 0xe1, 0x38, 0xd4, 0xaf, 0xe6, 0x0e, 0xcd, 
  0x0b, 0xfe, 0x6d, 0xd6, 0xc3, 0x1e, 0xae, 0x04, 0xca, 0xcd, 0xec, 0xd4, 
  0xc6, 0xda, 0x08, 0x06, 0xb4, 0xf1, 0xdc, 0xcd, 0x07, 0x1f, 0x29, 0xde, 
  0x33, 0xbd, 0x2b, 0xb9, 0xdd, 0xe7, 0xdf, 0xa8, 0xd5, 0xc6, 0x35, 0xc4, 
  0xb0, 0xc4, 0x39, 0x32, 0xf2, 0x9c, 0x20, 0x13, 0x35, 0xc4, 0x1e, 0xd2, 
  0x01, 0xd8, 0xc7, 0xed, 0x27, 0xdd, 0x24, 0xb9, 0xc4, 0x44, 0x00, 0x42, 
  0x38, 0x65, 0x32, 0x2b, 0xdc, 0xe9, 0xe6, 0xf8, 0xf9, 0xaf, 0xf8, 0xad, 
  0x2b, 0x03, 0xd8, 0xed, 0xf5, 0x30, 0xd6, 0x2e, 0x25, 0x22, 0x1b, 0xa6, 
  0x19, 0x4e, 0x11, 0x30, 0x4b, 0x42, 0x48, 0x1c, 0xb7, 0xcd, 0x02, 0x20, 
  0xdf, 0x15, 0x07, 0xd2, 0xad, 0x35, 0xfe, 0x59, 0x2f, 0xcb, 0xfc, 0x23, 
  0x43, 0x19, 0x4c, 0x18, 0xe9, 0x12, 0xd0, 0xfb, 0x38, 0x23, 0xd8, 0x51, 
  0xc9, 0xfc, 0x0f, 0x26, 0x03, 0x02, 0x2a, 0x19, 0xd9, 0xd6, 0x37, 0x7f, 
  0x5a, 0xc0, 0x07, 0x1c, 0xef, 0x53, 0x30, 0x38, 0xe5, 0x23, 0xba, 0x5b, 
  0xdd, 0x00, 0xe5, 0x2d, 0xec, 0xb8, 0xd3, 0x1d, 0x40, 0x0d, 0xea, 0x34, 
  0x21, 0xab, 0x45, 0x24, 0x3e, 0x41, 0x0b, 0x43, 0xb7, 0xe9, 0xe4, 0x0c, 
  0x3b, 0x18, 0xe3, 0x32, 0xda, 0x19, 0x58, 0xed, 0x24, 0x97, 0xce, 0xd5, 
  0x19, 0x05, 0x93, 0xe9, 0x32, 0xfb, 0x39, 0x6b, 0x57, 0xf2, 0x24, 0xdc, 
  0x43, 0x4a, 0x12, 0x03, 0x24, 0xcd, 0x0b, 0x24, 0xb6, 0xe0, 0xad, 0xb2, 
  0xf6, 0xa2, 0x1f, 0xeb, 0x38, 0x15, 0x5a, 0xfa, 0x48, 0xb2, 0x0b, 0x58, 
  0x15, 0xc9, 0xc8, 0x4c, 0xb6, 0x04, 0xef, 0x35, 0x93, 0xfc, 0x6c, 0xa6, 
  0x10, 0x30, 0x6d, 0xef, 0x0c, 0x24, 0xcf, 0x28, 0xe9, 0x9d, 0x63, 0x1b, 
  0x45, 0xb9, 0x2f, 0x9b, 0x6a, 0x55, 0x61, 0x51, 0xd4, 0x0f, 0xfc, 0xa5, 
  0x8d, 0x64, 0xc4, 0x01, 0x8b, 0x76, 0xfe, 0xc8, 0xc4, 0xf8, 0x81, 0x7c, 
  0xb3, 0x32, 0x4e, 0xf9, 0x2e, 0x46, 0x58, 0xcc, 0xd1, 0x97, 0xd6, 0x25, 
  0xd4, 0x9d, 0xd1, 0x28, 0x3a, 0x04, 0x62, 0x16, 0xf7, 0xe0, 0xf3, 0x39, 
  0x73, 0x6e, 0xe8, 0x27, 0xd6, 0xbf, 0x9c, 0x3b, 0x9e, 0xc6, 0x4c, 0xd0, 
  0xa3, 0xb0, 0xc3, 0xeb, 0x25, 0xb6, 0x00, 0xf2, 0x2d, 0x05, 0x5c, 0x5c, 
  0x57, 0xf3, 0x12, 0x28, 0x64, 0xef, 0x0c, 0x2d, 0xa0, 0x46, 0x24, 0x00, 
  0x11, 0xdd, 0x57, 0xc0, 0xe3, 0x6d, 0x07, 0xd8, 0x23, 0x00, 0x53, 0x42, 
  0xb5, 0xd5, 0x58, 0x27, 0xa1, 0x46, 0x66, 0x20, 0xc2, 0x37, 0xea, 0x58, 
  0xc0, 0x09, 0x75, 0x0d, 0x03, 0x56, 0x32, 0xb6, 0x59, 0x78, 0x9d, 0x0c, 
  0x75, 0x38, 0xb4, 0x97, 0x9e, 0xe7, 0xb5, 0xd1, 0xda, 0xe6, 0xe1, 0x09, 
  0xdc, 0xb9, 0x32, 0x4c, 0xf1, 0xfe, 0xc5, 0x04, 0x06, 0xae, 0xbe, 0x60, 
  0xde, 0xbd, 0xab, 0x11, 0xf6, 0xe8, 0x56, 0xdf, 0x26, 0xed, 0x10, 0x51, 
  0x4f, 0xea, 0xfe, 0x00, 0x3e, 0x51, 0x2f, 0x41, 0xdd, 0xdc, 0x33, 0x96, 
  0x2b, 0x3d, 0x13, 0x5f, 0x09, 0x7f, 0x14, 0x19, 0xf1, 0xaf, 0x37, 0x7e, 
  0x4c, 0x33, 0xd3, 0xf6, 0x15, 0xed, 0xc3, 0xdc, 0xe8, 0xbe, 0x4d, 0x24, 
  0xc2, 0x21, 0x4a, 0x07, 0xcd, 0xb5, 0xef, 0xeb, 0x5b, 0xa0, 0x95, 0xcd, 
  0x18, 0x52, 0x06, 0x1a, 0x43, 0x22, 0xde, 0x20, 0x33, 0xb5, 0xd2, 0x0e, 
  0xfd, 0xde, 0x0a, 0x50, 0xaf, 0xd0, 0xa1, 0xbe, 0x13, 0x03, 0x58, 0xdf, 
  0xd3, 0x4b, 0xda, 0x4f, 0xdc, 0xe9, 0xfa, 0xf5, 0x17, 0xe5, 0xf1, 0x36, 
  0xd8, 0xd6, 0xb1, 0xa7, 0xca, 0xf5, 0x25, 0x1b, 0x01, 0x26, 0x9f, 0x55, 
  0x1d, 0x19, 0x1e, 0x34, 0xb5, 0xaa, 0x17, 0xe4, 0xd2, 0x47, 0xc8, 0xf9, 
  0xf7, 0xbc, 0x11, 0x1a, 0x04, 0x29, 0x0f, 0x36, 0xbd, 0xbc, 0x54, 0x65, 
  0xe7, 0xc4, 0x15, 0xc9, 0x25, 0xa5, 0x9e, 0xeb, 0x1a, 0x06, 0x38, 0xc9, 
  0x4a, 0x3a, 0x0f, 0x42, 0xbd, 0x51, 0xb3, 0x53, 0xb2, 0xb0, 0xef, 0x2b, 
  0x06, 0x1b, 0xfd, 0xc0, 0x3a, 0x29, 0x30, 0x06, 0xd0, 0xe5, 0xcb, 0x6a, 
  0x3e, 0x3c, 0xf8, 0xf1, 0x0f, 0x30, 0xaa, 0x4d, 0x60, 0xfd, 0x25, 0x5c, 
  0x22, 0x4d, 0x5a, 0x48, 0x16, 0xb8, 0x41, 0x11, 0xc6, 0x21, 0xb1, 0x13, 
  0x33, 0xcb, 0x4c, 0xef, 0xfd, 0xb5, 0x03, 0xb6, 0xc2, 0x4f, 0x33, 0xd3, 
  0xdd, 0x09, 0x00, 0xf0, 0xc6, 0x2b, 0xd7, 0x67, 0xdc, 0xbc, 0x18, 0x10, 
  0xca, 0xe8, 0x07, 0xa5, 0x2c, 0x37, 0x46, 0x3a, 0xc4, 0xbd, 0x3a, 0x19, 
  0x36, 0x07, 0xac, 0xf9, 0x63, 0xaa, 0x2a, 0xd5, 0x42, 0xcc, 0xaa, 0xeb, 
  0x32, 0xc5, 0x63, 0x5c, 0x05, 0xf9, 0xb0, 0xb0, 0xcc, 0xc4, 0xe8, 0x29, 
  0x30, 0x05, 0x52, 0xff, 0x29, 0xbe, 0xa6, 0x62, 0x65, 0xa2, 0x40, 0x9f, 
  0x36, 0xdd, 0xdc, 0xd5, 0x1a, 0xed, 0x5f, 0xb4, 0xd9, 0x1e, 0x39, 0xc3, 
  0x37, 0x47, 0x2d, 0x07, 0x4f, 0x36, 0xb6, 0x71, 0x13, 0x10, 0xad, 0x9c, 
  0xe9, 0x02, 0xca, 0x47, 0xa3, 0x3d, 0xf7, 0x19, 0xcb, 0x6d, 0x66, 0xcb, 
  0xc3, 0x49, 0x7f, 0xcc, 0xce, 0x74, 0x3c, 0xb0, 0xb1, 0x3a, 0x5a, 0x34, 
  0xd7, 0xe7, 0xe6, 0xba, 0x3c, 0xce, 0xf4, 0xc8, 0xdb, 0xbd, 0xf1, 0xdf, 
  0x08, 0xe3, 0x01, 0xfc, 0x24, 0xee, 0xf6, 0xd0, 0xe1, 0x5b, 0x13, 0x36, 
  0x39, 0xc0, 0xea, 0x60, 0x33, 0xd9, 0x20, 0xc6, 0x48, 0x43, 0x4f, 0xee, 
  0x46, 0xad, 0x05, 0xfd, 0x35, 0x47, 0x4b, 0x4d, 0xc9, 0x26, 0xb8, 0x24, 
  0xeb, 0x63, 0x18, 0x22, 0xed, 0x89, 0x37, 0x17, 0x34, 0xef, 0x4d, 0x51, 
  0x0e, 0xd0, 0x3f, 0xe8, 0x46, 0x5b, 0x38, 0xd6, 0xed, 0x1a, 0x2d, 0x3d, 
  0xf9, 0xbc, 0xaf, 0xd5, 0x11, 0x1c, 0xd3, 0x53, 0xa5, 0xf1, 0x56, 0xf6, 
  0xf1, 0x8f, 0x57, 0x11, 0xfb, 0xc0, 0x01, 0xf9, 0xbb, 0x34, 0x36, 0x54, 
  0x4d, 0xdf, 0xbb, 0xc8, 0x11, 0xf0, 0x05, 0xd6, 0x60, 0xf6, 0xc5, 0xfc, 
  0x2b, 0xd7, 0x55, 0x1b, 0xba, 0xfb, 0x45, 0xd4, 0x29, 0x44, 0xea, 0x47, 
  0xd5, 0x91, 0xcc, 0xc6, 0x59, 0xdf, 0x2c, 0x57, 0x7e, 0x2d, 0x73, 0xc6, 
  0x9f, 0x11, 0x25, 0xd6, 0xe9, 0xee, 0x66, 0x36, 0xca, 0x4f, 0x20, 0xf1, 
  0xc0, 0x20, 0xf6, 0x64, 0x07, 0x3e, 0x57, 0xd4, 0x4d, 0x00, 0x18, 0xd9, 
  0x4f, 0xd9, 0x3b, 0x2f, 0x1b, 0xaf, 0xfb, 0x13, 0x1a, 0xab, 0x3e, 0x71, 
  0xd8, 0x1a, 0x11, 0xf2, 0x67, 0xcd, 0xd8, 0xa6, 0xa3, 0xb2, 0xc8, 0xb6, 
  0xe2, 0x39, 0x02, 0xdb, 0xbd, 0xa8, 0xb3, 0x3a, 0x5f, 0xcf, 0x00, 0x63, 
  0x49, 0xe2, 0x4f, 0x12, 0xfe, 0x50, 0xdc, 0x38, 0x01, 0xce, 0x32, 0x16, 
  0x32, 0x08, 0xcf, 0x56, 0xf6, 0x15, 0x05, 0x2a, 0xcc, 0x21, 0xd0, 0x1d, 
  0x12, 0xe4, 0x52, 0xde, 0xd2, 0x21, 0xe6, 0x13, 0xc4, 0xfe, 0xfa, 0x62, 
  0xd6, 0x35, 0x7f, 0x0b, 0x00, 0xfc, 0xc9, 0xd0, 0x0f, 0xd1, 0x02, 0xaf, 
  0x77, 0xa8, 0x0f, 0xde, 0x42, 0x1b, 0x1d, 0xfa, 0x4d, 0x20, 0xe2, 0xc5, 
  0xa9, 0x6f, 0x61, 0xa7, 0x30, 0xdb, 0x1f, 0x35, 0x29, 0x30, 0x32, 0xc9, 
  0x21, 0x04, 0xf9, 0xcf, 0xa0, 0x4b, 0xd8, 0xde, 0xaf, 0xe9, 0x1d, 0x84, 
  0x53, 0x66, 0xea, 0xe8, 0xff, 0x4a, 0x49, 0x54, 0xf9, 0xb2, 0x5b, 0xfd, 
  0xd3, 0x0b, 0xf4, 0x34, 0xef, 0xb5, 0xc1, 0x41, 0xa3, 0x47, 0xc3, 0xcf, 
  0x98, 0x01, 0x59, 0x10, 0x6a, 0xd4, 0x1b, 0x2d, 0xa1, 0x81, 0x11, 0x5a, 
  0x1a, 0x56, 0x0c, 0x00, 0xc5, 0x3a, 0x25, 0xb9, 0x3c, 0xfc, 0xf9, 0x3d, 
  0x81, 0xe7, 0x86, 0x5b, 0x9d, 0xf1, 0xef, 0x2c, 0x44, 0xcd, 0x2c, 0xa0, 
  0x4b, 0xd6, 0xee, 0x41, 0xe9, 0xb3, 0x16, 0x58, 0xa6, 0x50, 0x2b, 0x3d, 
  0xfc, 0x05, 0x5d, 0x5e, 0x16, 0x3d, 0x3c, 0xed, 0x53, 0xb4, 0xc5, 0xbd, 
  0x05, 0x61, 0xe5, 0xac, 0xc3, 0x33, 0x92, 0xc9, 0x38, 0x0b, 0xa8, 0x14, 
  0xf4, 0xed, 0xad, 0xaf, 0x18, 0xef, 0xde, 0xa7, 0x63, 0xa8, 0x6e, 0xdb, 
  0x8e, 0x50, 0xf0, 0x07, 0x51, 0x3e, 0x12, 0x29, 0x19, 0xb5, 0xdf, 0x4c, 
  0x3c, 0x3f, 0xec, 0x3a, 0x38, 0x4f, 0x61, 0x69, 0x36, 0x21, 0xe8, 0x16, 
  0xf5, 0x5b, 0x08, 0xb8, 0xba, 0xd4, 0xb0, 0x1c, 0xd8, 0x60, 0x06, 0xae, 
  0x2e, 0x3e, 0xa4, 0x63, 0xc4, 0x76, 0xb0, 0xea, 0x26, 0x2f, 0xa4, 0xd7, 
  0x76, 0xdc, 0x23, 0x9f, 0xcf, 0xe2, 0x37, 0xfd, 0xdb, 0xdf, 0x6b, 0x1d, 
  0xe3, 0x55, 0x39, 0x15, 0x1b, 0x68, 0xee, 0x38, 0x1c, 0xf8, 0xd9, 0xcb, 
  0x57, 0xc8, 0xc4, 0x4b, 0xf2, 0xfd, 0x29, 0xa0, 0x4d, 0xe4, 0xf9, 0x24, 
  0xdb, 0x0e, 0xdb, 0x7f, 0x30, 0xe3, 0xe9, 0xfa, 0xe4, 0x47, 0x41, 0x39, 
  0xb8, 0x64, 0x50, 0x32, 0x0b, 0x59, 0x98, 0xda, 0xf5, 0x30, 0xcb, 0x08, 
  0x28, 0x5f, 0x1b, 0xb5, 0xf5, 0x3d, 0x48, 0xeb, 0x28, 0xea, 0xd5, 0xd8, 
  0xcd, 0xcc, 0x6f, 0x4e, 0xf7, 0xa2, 0xf5, 0xe6, 0x55, 0xde, 0x5e, 0x3b, 
  0xdb, 0x16, 0x43, 0x37, 0xa4, 0xf0, 0x5e, 0x64, 0x03, 0xe1, 0x05, 0x61, 
  0x37, 0xb1, 0xfc, 0xec, 0xca, 0x40, 0x15, 0xef, 0x4a, 0x68, 0x54, 0x44, 
  0x26, 0x03, 0xe1, 0x5d, 0x2b, 0xe8, 0x3f, 0xc2, 0xb2, 0x11, 0xe9, 0xcf, 
  0x0c, 0x89, 0xec, 0x35, 0x8d, 0x20, 0xeb, 0x3e, 0x4d, 0x37, 0xb7, 0x33, 
  0xb0, 0x03, 0xf0, 0x26, 0x99, 0x0c, 0xe8, 0xc3, 0xb0, 0x3f, 0x9e, 0xf3, 
  0x00, 0x41, 0x60, 0xd4, 0x57, 0xb3, 0xed, 0x63, 0x33, 0x21, 0xcf, 0xdb, 
  0xde, 0xfe, 0x2f, 0xb2, 0x5a, 0x21, 0xf3, 0xfe, 0xde, 0x11, 0x44, 0x99, 
  0xae, 0xe4, 0xad, 0xc8, 0xed, 0xee, 0xac, 0x3d, 0x39, 0x42, 0x01, 0x32, 
  0xc4, 0xc8, 0xb4, 0x5b, 0x28, 0x0f, 0x23, 0xd9, 0xc8, 0xb6, 0xf6, 0xca, 
  0x0d, 0x71, 0x23, 0x31, 0xdc, 0x7c, 0xfb, 0x09, 0x4e, 0xaf, 0xcb, 0x4e, 
  0xe9, 0xcf, 0x29, 0x52, 0x5a, 0xdc, 0x41, 0xc0, 0x1e, 0x22, 0x3a, 0xff, 
  0x34, 0x42, 0x28, 0x62, 0x52, 0x3c, 0x62, 0x16, 0x59, 0x3d, 0xdf, 0x3b, 
  0xf6, 0x00, 0x69, 0x1e, 0x09, 0x68, 0x04, 0x4a, 0xdb, 0xce, 0x12, 0x93, 
  0x3b, 0x35, 0xdf, 0x47, 0x15, 0x05, 0x02, 0x40, 0x66, 0x4f, 0xa6, 0x0b, 
  0x1b, 0xf1, 0xe4, 0xa0, 0xc6, 0xf9, 0x1d, 0x4b, 0xd2, 0x25, 0x9a, 0x32, 
  0xfa, 0x4c, 0x3e, 0xe9, 0xe1, 0xc8, 0x0e, 0xd3, 0x68, 0xff, 0xb7, 0xf7, 
  0xea, 0xdd, 0xb3, 0x07, 0x9c, 0x28, 0x55, 0x54, 0x4b, 0x1d, 0x30, 0xf7, 
  0x30, 0xda, 0x1a, 0xe9, 0xdc, 0xfb, 0x25, 0xfc, 0xe3, 0x22, 0xae, 0x52, 
  0x2d, 0xbf, 0x18, 0x16, 0xbd, 0xaf, 0x13, 0x8b, 0xf4, 0x51, 0xe6, 0x69, 
  0x6b, 0x35, 0xa4, 0x54, 0x3f, 0x3f, 0x7f, 0x1e, 0x27, 0xad, 0xd3, 0x05, 
  0xd2, 0xe3, 0x15, 0xa1, 0xd5, 0x90, 0x18, 0xce, 0xbe, 0xeb, 0xec, 0xb8, 
  0xd4, 0xc9, 0x2d, 0xe0, 0x51, 0x53, 0x0f, 0x1c, 0xc0, 0xc3, 0x47, 0x41, 
  0xb9, 0xf7, 0xca, 0xf1, 0x8e, 0xfc, 0x26, 0x1a, 0x28, 0x2d, 0x3e, 0xf7, 
  0x33, 0x34, 0xa9, 0xe1, 0x2f, 0x62, 0x9d, 0x27, 0x12, 0x48, 0x41, 0x3b, 
  0x35, 0x66, 0x01, 0x21, 0x2d, 0xd3, 0xbf, 0x9d, 0xe8, 0x00, 0xf2, 0x95, 
  0x19, 0xb8, 0xef, 0x8e, 0xaa, 0xe5, 0xc5, 0x4a, 0xed, 0x3d, 0xd1, 0xb3, 
  0x21, 0x1d, 0x3e, 0xbd, 0xd6, 0xf7, 0xe6, 0x0f, 0xbb, 0xd6, 0xde, 0x35, 
  0x16, 0xca, 0xc1, 0xf8, 0x09, 0x19, 0xce, 0x1b, 0xf1, 0x13, 0xfa, 0x22, 
  0xd7, 0x61, 0xde, 0xe0, 0xe2, 0x12, 0xe8, 0x0a, 0xe0, 0x12, 0xbf, 0x36, 
  0x02, 0x41, 0xd2, 0x51, 0x2d, 0xf5, 0xe6, 0xdf, 0xb3, 0x0f, 0xb1, 0xd3, 
  0xd0, 0xb6, 0x20, 0xce, 0xc6, 0xbc, 0x13, 0xe8, 0xe7, 0xc8, 0x02, 0xf1, 
  0x4e, 0xf2, 0xfa, 0xbd, 0xcc, 0x10, 0xe0, 0x0b, 0xe3, 0xe1, 0xdf, 0xe0, 
  0x7f, 0x10, 0xb0, 0xb8, 0x3e, 0xc3, 0x25, 0xda, 0x6a, 0xdb, 0xfa, 0x02, 
  0x45, 0x09, 0xcb, 0x2e, 0xba, 0x25, 0xbf, 0xba, 0xd3, 0xcc, 0x10, 0x44, 
  0x29, 0x3c, 0x1a, 0x0c, 0x08, 0x66, 0xdf, 0xb9, 0xe8, 0x25, 0x26, 0x3c, 
  0xff, 0x4e, 0xd4, 0x34, 0x47, 0x5c, 0x1f, 0x57, 0x76, 0xd4, 0x26, 0x2f, 
  0xdd, 0x1f, 0xce, 0xfb, 0x1a, 0x00, 0x51, 0xef, 0xf5, 0xc1, 0xfc, 0xbe, 
  0x31, 0x5c, 0x39, 0xdd, 0x3d, 0x42, 0xab, 0xf2, 0x19, 0x1e, 0x16, 0x43, 
  0x53, 0xbb, 0x18, 0x2d, 0xb9, 0x16, 0xc0, 0x16, 0x4e, 0xfe, 0xd4, 0x54, 
  0x2c, 0xfd, 0x4f, 0xd7, 0x66, 0x5e, 0xb3, 0xc2, 0xfe, 0xe2, 0x3f, 0x1c, 
  0x0d, 0xc3, 0xed, 0xe0, 0xe9, 0x30, 0xd6, 0x54, 0x39, 0xe3, 0xbc, 0x2a, 
  0x02, 0x4a, 0x5b, 0x50, 0x41, 0xef, 0xeb, 0x2f, 0xff, 0xde, 0xf1, 0x13, 
  0xda, 0xb1, 0x58, 0x22, 0x37, 0x3a, 0xb1, 0x64, 0x44, 0xe4, 0x59, 0xd3, 
  0x5c, 0x61, 0x61, 0xfa, 0x51, 0xe7, 0xd1, 0x44, 0x2a, 0x37, 0x93, 0x3f, 
  0x11, 0x1e, 0x0a, 0x32, 0x4e, 0xda, 0x07, 0x96, 0xc9, 0xf8, 0x8c, 0x58, 
  0x3f, 0x0c, 0x32, 0xc3, 0x00, 0xbb, 0x26, 0xaa, 0xce, 0x29, 0xd2, 0xf7, 
  0x45, 0xe7, 0xc3, 0x5d, 0xc4, 0x47, 0x5c, 0xd0, 0x00, 0x63, 0x20, 0xbf, 
  0xe6, 0x2f, 0xb2, 0x3a, 0xba, 0x3c, 0xad, 0x0d, 0xf5, 0xd3, 0xb5, 0x4b, 
  0x2b, 0xef, 0x3e, 0x06, 0xb6, 0xc6, 0xf9, 0xb1, 0xfb, 0x19, 0x41, 0xc8, 
  0x54, 0x12, 0xcc, 0xdf, 0x51, 0x6e, 0xd4, 0xc1, 0xd8, 0x2d, 0xf8, 0xa2, 
  0x08, 0xca, 0xff, 0xdc, 0x22, 0xdd, 0x1c, 0x0a, 0xd9, 0x40, 0x02, 0xb9, 
  0x2a, 0x19, 0xeb, 0xed, 0x3a, 0x66, 0x42, 0x6c, 0x14, 0xbf, 0x08, 0x4e, 
  0xb5, 0x34, 0x2c, 0x2e, 0xc5, 0x49, 0x4c, 0x2b, 0xe4, 0x20, 0x66, 0x0c, 
  0xfe, 0xcf, 0xd5, 0x61, 0xc4, 0xd2, 0x12, 0x34, 0x21, 0x59, 0x28, 0x1d, 
  0xa7, 0xd9, 0x4f, 0x5a, 0x7f, 0x9b, 0x55, 0x51, 0xf3, 0x18, 0xff, 0xc9, 
  0x41, 0x3c, 0x46, 0x0c, 0x65, 0x0f, 0xf4, 0xff, 0x36, 0xa5, 0xd5, 0xe5, 
  0x22, 0xdb, 0xfa, 0x91, 0xb4, 0xcd, 0xec, 0x71, 0xdb, 0x53, 0xd9, 0xd1, 
  0xc8, 0xba, 0x7c, 0x2e, 0xd7, 0xa7, 0x77, 0xff, 0x0f, 0xc4, 0x39, 0xec, 
  0xdc, 0x0e, 0xeb, 0xa7, 0xf5, 0xeb, 0xe2, 0x22, 0xfa, 0xff, 0x22, 0x61, 
  0x18, 0xa8, 0xce, 0x64, 0x3a, 0x46, 0x5a, 0xad, 0xc1, 0x3f, 0xd2, 0x2c, 
  0x5d, 0xe4, 0x59, 0x01, 0x1f, 0xf6, 0xc4, 0x5f, 0x0b, 0xd8, 0x6d, 0xaf, 
  0x9f, 0xbf, 0xf3, 0xee, 0xd3, 0x26, 0xb6, 0xc2, 0x1f, 0xee, 0x33, 0x1b, 
  0xad, 0xce, 0xe2, 0x03, 0x5b, 0x23, 0xeb, 0xe8, 0xfe, 0x39, 0xc6, 0x2d, 
  0x4e, 0x12, 0x47, 0x45, 0x22, 0xf6, 0x22, 0x31, 0xeb, 0xed, 0x3e, 0xb4, 
  0x27, 0xc9, 0xa3, 0x17, 0x28, 0x3e, 0x3c, 0x14, 0x62, 0xe5, 0xd6, 0x1e, 
  0xa6, 0xe8, 0x46, 0xe3, 0x4c, 0xf6, 0xc5, 0xde, 0xf7, 0x35, 0x0c, 0xc5, 
  0xc9, 0x38, 0x2b, 0x2b, 0x0e, 0xba, 0xfc, 0x18, 0x45, 0x45, 0xb7, 0x20, 
  0x48, 0xf3, 0xa9, 0x2e, 0xe1, 0xe0, 0xdb, 0xb3, 0x49, 0xcf, 0x1f, 0x4a, 
  0xc3, 0x0e, 0xf5, 0xc1, 0xa9, 0xce, 0x31, 0xd1, 0x0a, 0xb2, 0xbb, 0xe6, 
  0x3e, 0x18, 0xba, 0x03, 0xff, 0xcf, 0xd9, 0x35, 0x07, 0x0d, 0x1f, 0xbd, 
  0xd9, 0x3d, 0x37, 0x29, 0x38, 0x07, 0x0c, 0x4d, 0x3b, 0x44, 0x3a, 0x42, 
  0xc7, 0x61, 0x2b, 0x2a, 0x16, 0xe6, 0x31, 0xea, 0x02, 0xce, 0xc2, 0xe0, 
  0xe7, 0x2f, 0xf4, 0x22, 0xbd, 0xec, 0x53, 0xd5, 0xc7, 0x49, 0x36, 0xf0, 
  0xb7, 0x61, 0x02, 0xf8, 0xcd, 0x7f, 0x3f, 0x30, 0xc6, 0x5b, 0xaa, 0xee, 
  0xf6, 0x19, 0xbf, 0x02, 0x0b, 0xcd, 0x41, 0x57, 0x50, 0x74, 0xdf, 0x2c, 
  0x4d, 0xae, 0x09, 0x8e, 0x2e, 0x07, 0xb9, 0xb1, 0x2b, 0x6a, 0x25, 0x2e, 
  0xfe, 0xb5, 0xed, 0xd7, 0xb0, 0xbb, 0x0f, 0x89, 0x34, 0xfe, 0xcb, 0xeb, 
  0xed, 0x22, 0x98, 0x72, 0xcf, 0xf1, 0x39, 0x13, 0x09, 0x0d, 0x54, 0x28, 
  0x38, 0x43, 0xe9, 0x25, 0xf1, 0x00, 0xa3, 0x61, 0xad, 0xeb, 0xcc, 0xdb, 
  0x3c, 0x1f, 0xdf, 0x1c, 0x0f, 0x61, 0xdc, 0x61, 0x61, 0xda, 0x53, 0xa7, 
  0x91, 0xe8, 0xd4, 0xde, 0x3e, 0x77, 0x22, 0x2c, 0x16, 0xeb, 0xb8, 0x44, 
  0xf8, 0xf7, 0x15, 0xce, 0xda, 0xc6, 0x37, 0xc3, 0xea, 0xe8, 0xa4, 0xa7, 
  0x1b, 0xca, 0x91, 0x2b, 0xd2, 0x18, 0x50, 0x08, 0xd7, 0x0f, 0xd3, 0x13, 
  0x64, 0x56, 0x5c, 0xbc, 0xdc, 0xe0, 0x9f, 0x04, 0xb1, 0x9c, 0x4d, 0x6b, 
  0xdb, 0xc1, 0xf0, 0xec, 0x06, 0xa2, 0x60, 0x5b, 0xf6, 0x5f, 0xfa, 0x58, 
  0x44, 0x5a, 0xf4, 0xde, 0x55, 0x6a, 0x0c, 0x70, 0x57, 0x69, 0xeb, 0xec, 
  0x7f, 0xfb, 0x29, 0x2a, 0xc2, 0xe2, 0xf6, 0x51, 0xec, 0x16, 0x28, 0x59, 
  0x9b, 0xf1, 0xd4, 0x3a, 0x1e, 0x03, 0x2c, 0xe0, 0x57, 0x4a, 0xd0, 0xef, 
  0xda, 0x12, 0x33, 0xff, 0x0a, 0x55, 0x3e, 0x46, 0x5c, 0x45, 0x3a, 0xde, 
  0x20, 0x01, 0xf1, 0xdf, 0x2e, 0x3f, 0xb1, 0x06, 0x19, 0x09, 0xba, 0xf9, 
  0x23, 0x0c, 0xf3, 0x66, 0xf5, 0x65, 0x5e, 0x5d, 0xbd, 0x56, 0x27, 0xf2, 
  0xca, 0x13, 0x45, 0x82, 0xa5, 0x15, 0xbf, 0x44, 0xfc, 0x09, 0xb7, 0xf9, 
  0xc1, 0x9f, 0xe0, 0xeb, 0x36, 0x0f, 0x75, 0x85, 0x42, 0x5b, 0x4d, 0x01, 
  0xb4, 0x2d, 0x25, 0x4c, 0x43, 0x43, 0xd6, 0x1a, 0xe6, 0xf8, 0x66, 0x31, 
  0xbb, 0x4a, 0x39, 0x01, 0x9b, 0x2a, 0x49, 0xe5, 0xfe, 0x26, 0x21, 0x40, 
  0x49, 0x4b, 0x0f, 0xff, 0x3d, 0x59, 0xb3, 0x79, 0x02, 0xe6, 0x2a, 0xf1, 
  0xc6, 0xd0, 0x0f, 0xc5, 0x10, 0x10, 0xf9, 0xac, 0x98, 0x4e, 0xe6, 0x29, 
  0xd2, 0x65, 0x20, 0xf6, 0x4c, 0x00, 0x32, 0x1f, 0x28, 0x20, 0xb3, 0xa5, 
  0xc3, 0xde, 0xa3, 0x3c, 0x5f, 0x23, 0xb2, 0xf9, 0xd1, 0xd4, 0x62, 0x2f, 
  0xd1, 0x00, 0x04, 0x46, 0xe3, 0xcd, 0xdc, 0x91, 0x47, 0xb1, 0x1f, 0x49, 
  0xea, 0xfe, 0x03, 0x36, 0x01, 0xe1, 0x63, 0x54, 0xf3, 0xbe, 0xd1, 0x21, 
  0x62, 0x1d, 0x0f, 0xec, 0x38, 0xca, 0x47, 0x6f, 0xad, 0xca, 0xd8, 0x38, 
  0x04, 0x4a, 0x48, 0xbd, 0x54, 0x1b, 0x70, 0x3c, 0xe2, 0x19, 0xf3, 0x3a, 
  0xb7, 0xe9, 0x11, 0x0b, 0x1d, 0x2b, 0xce, 0x0b, 0xc3, 0x09, 0xd2, 0xb0, 
  0xc6, 0xf6, 0x02, 0x6f, 0x56, 0x35, 0x05, 0xd3, 0x4a, 0x5b, 0x28, 0x27, 
  0x7f, 0xe9, 0xef, 0xb0, 0xac, 0x7e, 0x32, 0x9a, 0xb0, 0xa3, 0x70, 0x95, 
  0xd6, 0x4e, 0x55, 0xf9, 0xa6, 0x44, 0xa7, 0x24, 0xaf, 0x65, 0x89, 0xe2, 
  0x48, 0x29, 0x2f, 0x0e, 0xc0, 0xcf, 0x47, 0xa4, 0xaa, 0xf1, 0x11, 0xbc, 
  0xf9, 0x15, 0xd5, 0x00, 0x50, 0xa3, 0xe0, 0xfc, 0xf4, 0x3c, 0xf6, 0xfc, 
  0xcf, 0x26, 0x24, 0xcb, 0x4e, 0x5b, 0x47, 0x30, 0xdb, 0xb8, 0xf0, 0x1f, 
  0x9a, 0xc2, 0x51, 0x4b, 0x21, 0xa7, 0xe6, 0x65, 0xf5, 0x19, 0x4b, 0xb0, 
  0xf8, 0x02, 0x21, 0x54, 0x52, 0xc8, 0xb5, 0x81, 0xc5, 0xb2, 0xa0, 0xf2, 
  0xc5, 0x48, 0x97, 0x42, 0xe5, 0x54, 0x19, 0xc6, 0x50, 0xab, 0xe0, 0x38, 
  0xe6, 0x2e, 0xf9, 0x3c, 0x63, 0xa0, 0x11, 0x76, 0x27, 0x2e, 0xa8, 0x4c, 
  0x5f, 0x49, 0x41, 0xad, 0x4e, 0x24, 0xd4, 0x39, 0x90, 0xe5, 0x21, 0x02, 
  0x12, 0x63, 0x3e, 0x33, 0xed, 0x33, 0x49, 0x5b, 0x15, 0xca, 0x49, 0x97, 
  0xf3, 0x3b, 0x26, 0xa2, 0x92, 0xbf, 0x51, 0xa2, 0xae, 0xc1, 0xe2, 0xfc, 
  0xac, 0x30, 0x25, 0xc5, 0xdc, 0xeb, 0x38, 0xfe, 0xe3, 0xfd, 0x23, 0xe5, 
  0xaf, 0xe0, 0x9d, 0x3b, 0x98, 0x51, 0x49, 0xcc, 0x30, 0xf5, 0xdb, 0x18, 
  0xcb, 0xf8, 0x29, 0x32, 0xc3, 0xbc, 0x0e, 0xd2, 0x36, 0xc1, 0xce, 0xec, 
  0x35, 0x3d, 0xd3, 0x50, 0x27, 0x10, 0xf1, 0x0a, 0xf5, 0xf1, 0x0b, 0xd8, 
  0xd0, 0x2d, 0xda, 0x48, 0x43, 0xe9, 0xab, 0xf6, 0x59, 0x06, 0x6c, 0xd5, 
  0x41, 0x4e, 0x1f, 0x21, 0x34, 0x20, 0x4f, 0xca, 0x46, 0xe3, 0xf3, 0x33, 
  0x5c, 0x19, 0x9a, 0xeb, 0xc6, 0xd0, 0x7f, 0xfc, 0xe4, 0xf0, 0x20, 0xb3, 
  0x4a, 0x00, 0x34, 0xc3, 0x37, 0xc1, 0x29, 0x6d, 0xfb, 0xf0, 0xf2, 0x11, 
  0xbc, 0x0b, 0x60, 0x5c, 0x3a, 0x07, 0x35, 0x2d, 0x6a, 0xdd, 0xbf, 0x57, 
  0x44, 0xcf, 0xac, 0xaf, 0x22, 0xc3, 0xd9, 0x4f, 0x24, 0xd5, 0x10, 0xcc, 
  0x59, 0xba, 0xd7, 0x2c, 0xe9, 0xcc, 0xc3, 0xbd, 0xda, 0x98, 0x2d, 0x23, 
  0xa8, 0xdf, 0xd4, 0x44, 0xeb, 0xf1, 0x2b, 0x26, 0x53, 0xdf, 0xda, 0xd4, 
  0x97, 0x00, 0xf7, 0x50, 0x2f, 0x9a, 0xc0, 0x4e, 0xf5, 0xda, 0xd1, 0x66, 
  0x19, 0xd1, 0xcd, 0x16, 0xc0, 0x1a, 0xbf, 0x1c, 0x22, 0x43, 0xec, 0x3b, 
  0x10, 0xd6, 0x32, 0x29, 0xea, 0x03, 0x63, 0x1d, 0x55, 0x13, 0xa8, 0xca, 
  0xd3, 0x25, 0x3f, 0xf7, 0x3c, 0x18, 0x32, 0x1d, 0xe6, 0xe4, 0xe9, 0x27, 
  0x51, 0x9c, 0x41, 0xde, 0x00, 0xdd, 0x24, 0xe1, 0x06, 0x02, 0xe4, 0xe4, 
  0x1d, 0x50, 0x55, 0x07, 0x9d, 0x26, 0xf4, 0xd5, 0x0f, 0xde, 0x26, 0xb3, 
  0x27, 0x54, 0xd3, 0x3f, 0x37, 0xd7, 0x12, 0x05, 0xec, 0x46, 0x11, 0x56, 
  0x3f, 0x1e, 0xb5, 0x1f, 0xc8, 0xbc, 0xab, 0xc7, 0xf7, 0x92, 0x79, 0xbc, 
  0xc5, 0x55, 0x10, 0x09, 0x12, 0x30, 0xbe, 0x1e, 0x39, 0xa0, 0xec, 0xdb, 
  0xc6, 0x64, 0x2a, 0x48, 0xee, 0x08, 0xd9, 0x3f, 0x57, 0x20, 0xff, 0xb1, 
  0x08, 0x15, 0xa8, 0x8f, 0x09, 0x6d, 0xed, 0x3b, 0xfe, 0x54, 0xea, 0xfc, 
  0x26, 0x18, 0x3d, 0x31, 0xd2, 0x00, 0xe6, 0xf2, 0xf6, 0xd5, 0xa5, 0x6f, 
  0x13, 0x2b, 0x32, 0xc7, 0xa6, 0x41, 0xb1, 0x10, 0x25, 0xd2, 0x23, 0x38, 
  0x26, 0x19, 0xda, 0xac, 0x01, 0xd2, 0xab, 0x4d, 0x56, 0x1a, 0xeb, 0xf0, 
  0xdb, 0xc0, 0x33, 0xed, 0xe1, 0xd6, 0x08, 0xd2, 0xe1, 0x0c, 0x4e, 0x53, 
  0xa6, 0xbe, 0xd7, 0x65, 0xd9, 0x3a, 0x53, 0xe6, 0xe0, 0xe7, 0xb5, 0xcf, 
  0xd9, 0x44, 0x0e, 0x5c, 0x23, 0xbd, 0xd2, 0xf2, 0x12, 0x07, 0x19, 0x26, 
  0x38, 0xf3, 0x1c, 0x3d, 0xea, 0x05, 0x2e, 0x18, 0xd3, 0x1f, 0xb7, 0x34, 
  0x53, 0x2f, 0x30, 0xb8, 0xe4, 0xfa, 0x81, 0x45, 0xba, 0xd3, 0xe8, 0x10, 
  0x08, 0xca, 0x9f, 0xf5, 0x09, 0x04, 0x2f, 0x44, 0xf2, 0xe7, 0xe8, 0x76, 
  0x6c, 0x44, 0x34, 0xbd, 0xc9, 0x4e, 0xb0, 0xe9, 0xae, 0xd8, 0x10, 0x37, 
  0x52, 0x07, 0xc3, 0x4b, 0x54, 0x4f, 0x25, 0xb5, 0x22, 0xf8, 0x08, 0x48, 
  0x27, 0x1b, 0xe9, 0x30, 0xb5, 0x30, 0x00, 0x1a, 0xce, 0x4a, 0x38, 0xca, 
  0xf3, 0xd2, 0xf9, 0xf8, 0xfb, 0xd2, 0x10, 0x4e, 0x5e, 0xe3, 0x44, 0xa0, 
  0x36, 0xad, 0x1e, 0x90, 0x03, 0x74, 0x58, 0xd7, 0x1d, 0x3d, 0xd8, 0xb1, 
  0xda, 0x50, 0x3e, 0xe6, 0x1a, 0x3d, 0xcc, 0xc9, 0x32, 0xba, 0x0f, 0x0f, 
  0xfb, 0xc7, 0x7a, 0xb1, 0xfb, 0x5b, 0xc5, 0xdc, 0xcd, 0xcb, 0x28, 0x14, 
  0xf5, 0xc0, 0xaf, 0x53, 0xa8, 0xfd, 0x0f, 0xf7, 0x3d, 0xe6, 0x99, 0x3b, 
  0x5f, 0xd5, 0xf9, 0x10, 0xa5, 0xb8, 0xdd, 0xf9, 0xeb, 0x04, 0x0c, 0xa9, 
  0x64, 0xc8, 0x17, 0x23, 0x3a, 0xc0, 0x43, 0x44, 0xd1, 0xcb, 0x9d, 0xb1, 
  0x3f, 0x52, 0xb9, 0xc4, 0xaa, 0xef, 0x07, 0xb0, 0x30, 0xea, 0xd0, 0xef, 
  0x7c, 0x08, 0x0d, 0xfc, 0x55, 0x14, 0xdf, 0x3f, 0x07, 0xb2, 0xa8, 0xdb, 
  0xeb, 0x4e, 0xf0, 0x3f, 0x29, 0xf2, 0x1b, 0x2e, 0xd8, 0x25, 0x17, 0x3d, 
  0xef, 0xd3, 0xd2, 0xcc, 0xb4, 0x20, 0x35, 0x2a, 0x2d, 0x2a, 0x33, 0x05, 
  0xba, 0x3c, 0x14, 0xd3, 0xed, 0xfa, 0x15, 0x00, 0x39, 0x04, 0x4d, 0xbe, 
  0xfb, 0xd7, 0x4d, 0xfa, 0xc8, 0x16, 0x22, 0xc3, 0xc7, 0x78, 0x6a, 0x36, 
  0x29, 0xef, 0x27, 0xe3, 0x36, 0xb3, 0x97, 0x3c, 0x4d, 0xc9, 0xe8, 0xde, 
  0x48, 0xcf, 0xfa, 0x54, 0x1d, 0xcf, 0x46, 0x2e, 0xf3, 0xdd, 0x02, 0x7f, 
  0x3d, 0xda, 0x2a, 0xe3, 0xf3, 0x0b, 0xe8, 0xb9, 0x5f, 0x01, 0x10, 0xb9, 
  0x0f, 0xd8, 0x4d, 0x2b, 0xb0, 0xf8, 0x4a, 0x59, 0x18, 0x33, 0xee, 0x4c, 
  0x19, 0xd3, 0x38, 0x17, 0x14, 0x00, 0xc6, 0x60, 0x02, 0xc6, 0x2c, 0x16, 
  0x15, 0x02, 0xc8, 0xf8, 0x09, 0xea, 0x57, 0xee, 0xca, 0xfc, 0x74, 0xea, 
  0x2f, 0x03, 0x9b, 0xfc, 0x0e, 0xd6, 0x07, 0x47, 0x0d, 0x3c, 0x33, 0x07, 
  0x09, 0xac, 0x05, 0x0d, 0xe4, 0x32, 0xce, 0xd7, 0x48, 0x42, 0x25, 0x50, 
  0xd3, 0xc4, 0x1a, 0xd8, 0xc9, 0x4b, 0x08, 0xf8, 0x99, 0x0a, 0xfa, 0xde, 
  0x3d, 0xa0, 0xef, 0x1e, 0x37, 0x51, 0x14, 0x11, 0xcf, 0x0d, 0xfe, 0x32, 
  0x10, 0xa1, 0x25, 0xb8, 0x63, 0xce, 0xe1, 0xe2, 0xea, 0xc5, 0xe9, 0xd2, 
  0x2a, 0x3f, 0xc1, 0xf8, 0x18, 0x1c, 0xf2, 0x34, 0xee, 0x5a, 0x2f, 0x3d, 
  0x45, 0x5a, 0x09, 0xdd, 0x41, 0xe0, 0x36, 0xe0, 0xf5, 0x8a, 0x34, 0x14, 
  0x2a, 0x2a, 0xe4, 0x04, 0xec, 0xcf, 0x42, 0xd6, 0x58, 0xc1, 0xcc, 0x43, 
  0x17, 0x54, 0x2d, 0xe9, 0x77, 0xab, 0xab, 0x0b, 0xf1, 0x04, 0x53, 0x23, 
  0x19, 0x45, 0x2d, 0x2a, 0xe9, 0xde, 0x0f, 0x34, 0x14, 0x34, 0xb8, 0xd6, 
  0xde, 0x11, 0x74, 0xd7, 0xee, 0x0b, 0xc4, 0x79, 0xde, 0x7f, 0xe4, 0x00, 
  0xd5, 0xf8, 0x58, 0xf4, 0x1e, 0x2a, 0xed, 0xc0, 0xf9, 0xed, 0x31, 0x61, 
  0xd9, 0x48, 0x4e, 0x45, 0x27, 0x40, 0x1a, 0x10, 0xcb, 0x36, 0x67, 0x38, 
  0x0d, 0x3f, 0x7e, 0xcd, 0xe6, 0x4a, 0x43, 0x65, 0x43, 0xc9, 0xaa, 0xb6, 
  0x4a, 0x0f, 0x11, 0xe3, 0xc2, 0xc4, 0xe8, 0x8c, 0x42, 0xc6, 0x25, 0x48, 
  0x0d, 0x58, 0x31, 0x18, 0x57, 0xf5, 0xf8, 0xe6, 0xff, 0xba, 0xab, 0x79, 
  0xe5, 0x23, 0x14, 0x57, 0x48, 0xad, 0x3c, 0x34, 0xc8, 0x3e, 0x62, 0x07, 
  0x4d, 0xe2, 0x18, 0x5b, 0x1e, 0xf4, 0xbb, 0x1e, 0xfe, 0x16, 0xe3, 0xe3, 
  0xb5, 0x6b, 0x12, 0xd0, 0xca, 0x48, 0xcb, 0xfb, 0x12, 0xee, 0xe0, 0x10, 
  0xf2, 0x1b, 0x03, 0xe1, 0xc8, 0x42, 0xe6, 0xd0, 0x03, 0xbb, 0xee, 0xfd, 
  0x5b, 0xe9, 0x0f, 0xe5, 0x59, 0xa4, 0x45, 0xe4, 0x37, 0xc1, 0x18, 0x4e, 
  0x15, 0xcd, 0x19, 0xf0, 0xf8, 0x84, 0xbd, 0xd2, 0x52, 0xda, 0x56, 0xe7, 
  0xea, 0x02, 0xdd, 0xb4, 0x12, 0xf2, 0xe0, 0x3a, 0xda, 0x50, 0x5e, 0x3d, 
  0x99, 0x12, 0xe1, 0x28, 0xbb, 0xe2, 0x2d, 0x20, 0xc0, 0x47, 0x1d, 0x1b, 
  0x2e, 0xf8, 0x13, 0x0a, 0xc2, 0x20, 0x4e, 0x2f, 0x0d, 0x59, 0x31, 0x54, 
  0x34, 0xfa, 0xf3, 0xea, 0xc0, 0xed, 0x17, 0x3c, 0x84, 0x0f, 0x02, 0xb9, 
  0xf1, 0x93, 0x11, 0x51, 0xc0, 0xc3, 0xf1, 0x08, 0x4d, 0x9b, 0x3a, 0xc2, 
  0xf8, 0x21, 0x4f, 0xb6, 0xe4, 0xc1, 0x04, 0xa4, 0xfc, 0x20, 0x0c, 0x81, 
  0xe6, 0xfe, 0x0c, 0x19, 0x2d, 0xbf, 0xa4, 0xab, 0x96, 0xa7, 0xa8, 0x23, 
  0x0b, 0x08, 0x13, 0xe2, 0x37, 0x1b, 0xf2, 0xa0, 0xb5, 0x36, 0x5d, 0x41, 
  0xa4, 0x63, 0x08, 0xe2, 0xa7, 0x1e, 0xda, 0x25, 0xd0, 0x4f, 0xab, 0xec, 
  0x59, 0xbd, 0xf6, 0x51, 0xf2, 0xe2, 0x11, 0xdb, 0x1d, 0x79, 0xa5, 0xed, 
  0xa4, 0xc8, 0x65, 0xbf, 0xbb, 0x38, 0x1a, 0x2d, 0xb6, 0x49, 0x37, 0x9c, 
  0xd8, 0x96, 0xcf, 0xb8, 0xc3, 0xfc, 0xbc, 0xb4, 0x21, 0xb6, 0x21, 0xb8, 
  0xaf, 0x27, 0xb2, 0x30, 0xe1, 0xd1, 0x60, 0xde, 0xd6, 0x50, 0xcb, 0x20, 
  0xd0, 0xa1, 0x35, 0xa9, 0x17, 0x1c, 0xb9, 0xe3, 0xc5, 0xbc, 0x26, 0xaa, 
  0xb3, 0xf4, 0x38, 0x48, 0xce, 0x37, 0xc1, 0x38, 0x1d, 0x19, 0x4c, 0xd0, 
  0xe7, 0x3a, 0x06, 0x33, 0x98, 0x22, 0x2e, 0xe2, 0x15, 0xa0, 0x4a, 0xa7, 
  0x1e, 0x6e, 0xe9, 0x0d, 0x22, 0x0e, 0xef, 0xce, 0xe4, 0xf7, 0x3a, 0x07, 
  0x4f, 0x35, 0x35, 0x2a, 0xff, 0x18, 0xf4, 0xe5, 0x50, 0xd3, 0xb1, 0x5b, 
  0x01, 0x5b, 0x41, 0xb3, 0x95, 0xd6, 0x29, 0xed, 0x19, 0xfc, 0xc2, 0xb0, 
  0xad, 0xc0, 0xab, 0x5d, 0xf5, 0xe2, 0x31, 0x39, 0x00, 0xee, 0x25, 0xc4, 
  0x8f, 0xe6, 0xba, 0x3c, 0x31, 0xd3, 0x94, 0xbe, 0x27, 0x5b, 0x61, 0xfb, 
  0xf9, 0x48, 0x5c, 0x67, 0x0f, 0x51, 0x22, 0x6d, 0xf5, 0x7f, 0xdd, 0x60, 
  0x43, 0xbb, 0x5a, 0x05, 0xba, 0xe1, 0x49, 0x11, 0xa6, 0x32, 0x27, 0x6c, 
  0x4f, 0xac, 0x19, 0x12, 0x52, 0x1c, 0x33, 0xcf, 0x43, 0x1a, 0x01, 0xff, 
  0xc4, 0xf0, 0xc8, 0xb6, 0x58, 0xaa, 0x67, 0x62, 0xe8, 0x3f, 0x6c, 0x2c, 
  0x93, 0xd2, 0x1d, 0xdb, 0x0a, 0x0e, 0xc7, 0xd3, 0x06, 0x4f, 0xd5, 0xac, 
